#pragma once

#include <stdint.h>

static uint32_t c3_weight_data[] = {
    0xf9e70ec9, 0x27d7252e, 0x34fb27c7, 0xf5f1e827, 
    0xeee01bfa, 0x1d30e2fa, 0x27d7fae4, 0x04e4d128, 
    0xfef6fd32, 0xe0ec36e9, 0xd9dfebe6, 0xed3823ed, 
    0xddda0332, 0xe72f0ddb, 0x1c1231e6, 0x3200dd1e, 
    0xde1428f0, 0xf0e3d0e8, 0x1ce7f227, 0xdf32e215, 
    0xe1d528fb, 0x10e504fc, 0xeee41f21, 0xfd33e4ef, 
    0xf22f2afa, 0x3a03e1e7, 0xdee3e2e3, 0x242c2a29, 
    0x05f6e916, 0xe6e5dc0c, 0x2f2c27f8, 0x22e3f2ce, 
    0xf9edfcd6, 0xf2e403fe, 0x311720ef, 0xe2e42df9, 
    0xf2e7e719, 0xfae92504, 0x131bf8e5, 0xd50044ee, 
    0x2e3020f2, 0x35efc8db, 0xfb1deada, 0xeefbf8f4, 
    0x0900f618, 0x140802f6, 0xefed01f8, 0xed1c1210, 
    0xd4de2227, 0xfb32e7e5, 0xd81be51e, 0x25d820ef, 
    0xe6211cd1, 0xccf61d1d, 0xfa1c00df, 0x36cc29da, 
    0xe0182ee0, 0x23d900f7, 0x1dfd2ccd, 0x1801e0e5, 
    0xd4393adc, 0x00e7d8fe, 0xe7102612, 0xf82ee31e, 
    0x13f7f5e3, 0xe2de22f2, 0xebfcd31d, 0xdaed1d1e, 
    0x3b00d9e8, 0x3226ce2e, 0xf80706e7, 0x31f4f3ea, 
    0xecf424f1, 0x19fef802, 0x01fe39e4, 0xe507f6fd, 
    0x040135ff, 0xef3af1f7, 0x24d1e307, 0xfd1a0df1, 
    0xede53006, 0x03eae925, 0x04fb22ee, 0x37f6effd, 
    0xfaedf319, 0x372dfad5, 0xd82215e1, 0x1f29cb19, 
    0xd3f0ce13, 0xdd2add27, 0xe614e11b, 0x152aed16, 
    0xf8fccfe7, 0x0ec93720, 0xce2fd815, 0x282104e9, 
    0x29ecd1cf, 0xdd2ccf24, 0x1fe0e2f3, 0x2214d928, 
    0xe62c341c, 0xedd9f40f, 0x31df0fd1, 0xf42de7f3, 
    0xcfffd439, 0x23eeeafe, 0xeef003e7, 0xfb032535, 
    0x0d0706f5, 0x060006fd, 0xece9ed28, 0xf5eee840, 
    0xe1e928ed, 0xfaf2f82f, 0xe31c0121, 0xe4f7f1f9, 
    0xeae90137, 0xf82e37d9, 0x0eebf3e4, 0xf7fa1ff9, 
    0xd407d326, 0xea1e21dd, 0xebeb0a21, 0x28e92fcf, 
    0x2118db0a, 0x28ce25ed, 0x21e1e0dc, 0xdbd81a0f, 
    0x2a232fc1, 0x2b28f4d8, 0xf0ff01f7, 0xf805f5fe, 
    0x2aefef27, 0xecfcf732, 0xebde29ec, 0xe7f0e6eb, 
    0x07ecff31, 0xd0f32ef8, 0x1b2cec14, 0xdcdff137, 
    0xd6f7ef22, 0x2b0627e2, 0xf5f90fd6, 0x2ae53901, 
    0x00fcddf8, 0xfb02ebfc, 0xe200f430, 0xe4d629e2, 
    0x1534ddf2, 0x141c22de, 0xe438f02f, 0x1ef2f7f8, 
    0xee24c30e, 0x25edf0e4, 0xf4d8222e, 0xfe0a13f6, 
    0x35eae427, 0x16e2eae3, 0xe52122d5, 0x2cd225e7, 
    0x010409eb, 0x2ff7edf3, 0x35e606eb, 0xf636ebfd, 
    0xdc06fb01, 0x1ce5071c, 0xfdec0ccd, 0x18e20e0d, 
    0x0ee5e92d, 0xf404f623, 0xf7191d32, 0xd92fdb09, 
    0xd701f1dd, 0x182acbd6, 0xf0322eef, 0xfd37f314, 
    0xefed00fd, 0xe53cfcdf, 0xf6e1db16, 0xcc30ce38, 
    0xfbd7f12c, 0xfb2fd61b, 0xee2a14e5, 0xcdd50b21, 
    0x260f10da, 0x39dfe7f6, 0xf4f02df0, 0xedfb1bee, 
    0x1de533ec, 0xf1f81cf4, 0x1020ef1e, 0xe1d7d039, 
    0xf2fc22f9, 0xfefc00f5, 0x3cf3f8f0, 0x2ed4daf8, 
    0xea292fdb, 0x1cf8e127, 0xfef6e3e6, 0x0b17fa13, 
    0xdd28fafa, 0xd8d1e134, 0x35dd3310, 0xeefbe631, 
    0xefebed2f, 0xeed42128, 0xec0b14e4, 0xe5ecf714, 
    0x33e7e3e2, 0x002be33b, 0x1428dbec, 0xf6f21d1c, 
    0x16e9edf2, 0xd409ee2f, 0xd30c1fee, 0x0b142212, 
    0xe50109fa, 0xd1e0f7c0, 0xe029fde4, 0x382011e0, 
    0xfff40b0c, 0x0d0bf906, 0xf8ed0902, 0xfbfefa1d, 
    0xebf03100, 0xeb31f4f8, 0xf0f20030, 0xdb2cdbf4, 
    0xd62306e0, 0x220dd22c, 0xe5d12ee8, 0xee172403, 
    0xec12e52d, 0xf1eff630, 0xe529fcf1, 0xdbd125df, 
    0xd126221c, 0xe02725e0, 0xf426e6f3, 0x2fd229d2, 
    0xded0e325, 0x0c2121ee, 0x15e91016, 0x22de1bc7, 
    0x0f180de6, 0xd6e4e81b, 0xe1f217f7, 0x26d92b2a, 
    0xdada292b, 0xcb232edf, 0xebfb3202, 0x3de6fe1d, 
    0x1a1fc8ec, 0xe4f00f11, 0xfcd709f4, 0x2bf9e80e, 
    0x1bcf26e2, 0x36e219dc, 0xeafdeb2a, 0xfae3f323, 
    0xe827ed31, 0x18f0edea, 0xe4dedd1c, 0x2e0432d8, 
    0x3805e5e8, 0x271bf2d0, 0x1fd929cf, 0xcae7ed1d, 
    0x3426d9df, 0x281acf22, 0xe5ed18ec, 0xeb2d14f1, 
    0xf3fde22b, 0xfdf8fdf4, 0xfafafc4b, 0xeee5e526, 
    0xe0272ecb, 0xeff00b25, 0xe62439ea, 0xd9f631ec, 
    0xdd170127, 0x2118ebea, 0xe5e3e4e0, 0xea0630e7, 
    0x1d23f8f1, 0x242af300, 0xf2f522db, 0x16fbda11, 
    0xeaf731ff, 0xeee231f0, 0xefe82907, 0x28f821eb, 
    0x1fe5edf9, 0x101fcf11, 0xe01bd918, 0xf3faeb06, 
    0xeb32ed37, 0xd914dc04, 0xe3e42e31, 0x0d15e3e5, 
    0xede92a27, 0x260d06d6, 0x2bf3c905, 0xe32d3201, 
    0xccecfdeb, 0x20240df6, 0x13fcdf11, 0xecfdc4e9, 
    0x25f027ff, 0x31e7e6e5, 0xdbf8ebdb, 0x23e0e227, 
    0x19d72428, 0x19dd1d1f, 0x1825dcde, 0xdcdae5f8, 
    0xe906fb29, 0x2fdf333e, 0x36e739f0, 0xf3dff4e9, 
    0xebfcf1f8, 0xfcf8040b, 0xdafdf246, 0x06fa2ee6, 
    0x223de2ed, 0xfbe8f0fc, 0xff3af532, 0xe7f9e0f1, 
    0xd5e32b36, 0xe73220e1, 0x17d9fe02, 0xf330161b, 
    0x3721c5e9, 0xe236e1ed, 0xd315d9e5, 0xfb25fc0a, 
    0xecef141a, 0xebe7d40b, 0xcfce1e22, 0x252626d6, 
    0x0bccf52e, 0xe736d424, 0xecf325d4, 0xd422151b, 
    0x1bf025cf, 0xedff13f5, 0xebff05fd, 0xf1dc1010, 
    0xe2d4222d, 0x142522d1, 0xe52329e3, 0xe625f421, 
    0x36f3d4ea, 0x3bf0f9e4, 0x03ecf5e6, 0xecd935e4, 
    0x33e3e025, 0xefff27d5, 0x012fef23, 0x1adedeed, 
    0xe4052a05, 0xf2e8e5fc, 0x32f6f635, 0xf32eeeed, 
    0x09eced03, 0xfa08faf5, 0xfffc05fb, 0xf9ed0506, 
    0x10f3f2fc, 0x33d62cdb, 0xec0ceedd, 0x34f6df1d, 
    0x35e62b0a, 0xdb29dfe4, 0x20eb2ce7, 
    // 0xe4fafbc9, 0xe31edae6, 0x2ce7e4fb, 0xe9f9edf8, 
    // 0x1cf61df2, 0xd9da211e, 0xedf210dc, 0x3afdf4e7, 
    // 0x29d5fb06, 0x2ce9fc1b, 0x03fedf1c, 0x2ef9e928, 
    // 0xd8edeb26, 0xf3ebeff7, 0xd6fcf922, 0xe2f6242f, 
    // 0xe21ce6eb, 0x3c140132, 0xfbf62a2c, 0xf8f8fc1e, 
    // 0xec28ddfa, 0xe012e9ec, 0x2cf8ed0c, 0x27df12e8, 
    // 0xd91be925, 0xe20e1f02, 0xe7d0de31, 0xf026fdec, 
    // 0xfb00e327, 0x1406e507, 0xfdf6f327, 0xdff8d7db, 
    // 0xf9fcfdf8, 0xe70a2102, 0xdcf5f32e, 0xffe4f3e3, 
    // 0xedf5f605, 0x340ee6dd, 0xddeb04e2, 0xee28f0dd, 
    // 0xf92724e1, 0xfb20fa2d, 0xe6e5ed02, 0xe73a2329, 
    // 0xec06da22, 0x0430eff6, 0xf8e11ffa, 0x3134dd04, 
    // 0xe1edfbea, 0xebd3f8f1, 0x2a01db25, 0xf5efd0e6, 
    // 0xeef0e4eb, 0x35091613, 0xd71d1807, 0xeef1e5f3, 
    // 0xf2efede7, 0x35fa1cda, 0x16dbe521, 0xf80bd122, 
    // 0xec2edbf4, 0x15e3e025, 0x1a3226e8, 0xe4ed36e8, 
    // 0xf318caf2, 0xe501efe5, 0x1f2916f3, 0x2b2ad9eb, 
    // 0x19ebec0d, 0xdaf12fe5, 0x37fee7f0, 0xecf5ebfc, 
    // 0x3629f113, 0x322aef35, 0x35eef9fa, 0x323027e7, 
    // 0x2700dbdf, 0x1603efd5, 0xe5e4fe2c, 0x2708f430, 
    // 0xcdcc1d1b, 0xe8de1e39, 0x07070207, 0x132dfde5, 
    // 0xf3212014, 0xf5eef32c, 0xe4f72fe9, 0xc1cecf07, 
    // 0x14f032ff, 0xf20201f7, 0xd50ae438, 0x2de5fd04, 
    // 0x1637d619, 0xecdf21d7, 0xe6d4f520, 0xe2d43128, 
    // 0xe4142f28, 0xe0311df4, 0xf3d130d1, 0x2be4c7d0, 
    // 0x2af911fb, 0xdf1bd827, 0xeae5f4ed, 0xff2ae717, 
    // 0x31fa11e8, 0xff2401e9, 0xf0da1ff8, 0x36e8e6fc, 
    // 0x2225edd9, 0x2dff1bcc, 0x23d9e423, 0xfc08ed05, 
    // 0xe8f9e40c, 0x0dd9fd1d, 0xe4e1f232, 0x032fe93a, 
    // 0xf82ef8e2, 0x1dd82214, 0xe3d42c36, 0xf8f8d9e2, 
    // 0xefede3e5, 0x37e6ce37, 0xe7e6e228, 0xf8ec0623, 
    // 0x2fd4f3e4, 0xf7f02f28, 0x39d6ece7, 0xf0e4ddfb, 
    // 0xeb0122fe, 0xcbf7e91c, 0x0bfbdbfd, 0x00103339, 
    // 0xe6dde32e, 0xee14e3ee, 0xfafffd0b, 0xf6e506eb, 
    // 0x1bdee6db, 0x0feb29d6, 0x32e8eb2b, 0xfde5d927, 
    // 0x30dd39ee, 0xcfef3124, 0x32ed2ef3, 0x1ddb2720, 
    // 0x2eeb39dc, 0xe1172bfb, 0x150b1efb, 0xf9e522ed, 
    // 0xeee4efec, 0xdfecf2fa, 0xf6e4f12e, 0xe7f02fed, 
    // 0xf6e333fc, 0x1b19e4ce, 0xdef8fbdb, 0xfde0f6ef, 
    // 0x001d2efe, 0xd1fffeea, 0xf0e1f625, 0xe0cfc916, 
    // 0x07e72d0f, 0xeb37f240, 0x23dce9dd, 0x2c31fcfe, 
    // 0x3430e5e2, 0x2127edf8, 0xe5cd36f3, 0xe1fd2a09, 
    // 0xe5f0d51b, 0xf6dbfc39, 0xe7e4fb34, 0x29fa091c, 
    // 0x2330fe06, 0x261cef03, 0xdaf7deee, 0xfde2f01d, 
    // 0x26cf04ea, 0x24cbf8f1, 0xf7db06ea, 0xe4371feb, 
    // 0xf0112dd6, 0xe729dd27, 0xe332fa0b, 0xce1a361b, 
    // 0xd4fd2224, 0x2f25f021, 0xf3fb2efc, 0xf525291d, 
    // 0xe723fefa, 0xfd041c28, 0xf2f205e2, 0xeec813e7, 
    // 0xcc20d401, 0xf8d81d2e, 0x19f33bd3, 0x37e92435, 
    // 0x0eedd315, 0xf4f41fd1, 0xfae80d03, 0x28210e01, 
    // 0xecf52ae0, 0x2a271bff, 0x25f715f4, 0xf6ede5e4, 
    // 0x18db0e0c, 0xcdd6f600, 0xfed01d2d, 0xeee1fe2f, 
    // 0xd41d3314, 0xfbf9e009, 0xf124d600, 0x2221f422, 
    // 0xe4feda17, 0x2eedea26, 0xfd143429, 0xeaebe62e, 
    // 0x1021ea22, 0xe306e3ed, 0x19e225df, 0x060436fb, 
    // 0xe216d5f5, 0xd4d4cf14, 0x3bf4e205, 0xf3e501e0, 
    // 0xdbdf1005, 0xe9d7fad7, 0x1514e638, 0x0ce3fae5, 
    // 0xeee7efe3, 0xe5ed18ef, 0xe518dfd8, 0x2efce3e7, 
    // 0xf101e4f4, 0x272219ea, 0x28ec152a, 0xfdf039d9, 
    // 0xf9e921ee, 0xd8e10a1e, 0x37ecec05, 0xde00f806, 
    // 0xe7ea2ef2, 0x23ec01f7, 0x38edef2f, 0xf4f0da2f, 
    // 0x1329f0d7, 0x3b0b2fd1, 0xe001eef2, 0x2cf2000b, 
    // 0xd226f117, 0xdff2e621, 0x23cff4e6, 0x22d9e8f0, 
    // 0xec274b2d, 0xf0f5f118, 0xe53218f8, 0xe5fceb0d, 
    // 0xe906dee0, 0xe13aedf8, 0xd6efe530, 0xd1ffcf36, 
    // 0xede3e625, 0xdbfc03e8, 0x1b27e7f6, 0x31ed3627, 
    // 0x2a10e2de, 0x2022dcde, 0xf63544f2, 0x0025e7ef, 
    // 0xf500e0e0, 0x3931ceeb, 0xf3030d04, 0xd815ddd8, 
    // 0xd4edd929, 0x01f506ee, 0xdbea1fea, 0x29f8f421, 
    // 0xdd2bf107, 0x221e22e2, 0xfb2f2535, 0x2ed9f6fd, 
    // 0x10fbceef, 0xf8e11cf4, 0xedd8faea, 0x1ff6e3ec, 
    // 0x310d11e5, 0xfceed2f0, 0x0d0c29d1, 0x093d2ee1, 
    // 0xe518f31b, 0xfcebcf1f, 0xf82131e0, 0xd92831f2, 
    // 0xfd26e3eb, 0xdc23e613, 0xe2fcf4e9, 0xd9f320ff, 
    // 0x25e726ec, 0xf5e622eb, 0xedf2de33, 0x2c342cff, 
    // 0xec28e0c7, 0x32e81232, 0xe5292f21, 0x000417d6, 
    // 0x321000da, 0x01f71cd1, 0x261ef712, 0x1af7fef1, 
    // 0x2a19edee, 0x14242fe7, 0x0035ffd1, 0xfad91ced, 
    // 0x280f1821, 0xdff8de27, 0x1ce2fcd6, 0xd2e3d80e, 
    // 0x040d06eb, 0x30df32dd, 0xf8ee0fe5, 0x1727f3f9, 
    // 0x2b14eb10, 0x20c00cf2, 0x0df4f002, 0xd2e0292d, 
    // 0x232a1816, 0xe3dcd7ec, 0x1a1d051c, 0xf625fa2b, 
    // 0xe21123e0, 0x15041bf9, 0xe7e9ec05, 0xdf3e2528, 
    // 0x32f13d46, 0x260b15e9, 0x2510f0d4, 0xded5ecea, 
    // 0xd606ec35, 0xee27eb0a, 0x1c03e0d1, 0xf21fdfd0, 
    // 0x31fce62a, 0x09ead525, 0xfa1cfb12, 0x13261800, 
    // 0x0124321d, 0xfa22fdf1, 0xcecfddcb, 0xcf0f22cf, 
    // 0xe3280625, 0x210af737, 0xebef2b1a, 0x000fdc2e, 
    // 0xf4c31429, 0xdc062cea, 0xf0f1f40e, 0x2614ccfc, 
    // 0x3c22f11b, 0xef330be1, 0xd3ed00f7, 0xeb0938f7, 
    // 0xe5e522db, 0x0f102f25, 0xfcc8cb2b, 0x38ddfa19, 
    // 0xfae228ed, 0x1de4d90b, 0xe0edeeda, 0xccc90ddc, 
    // 0x182431c4, 0x22f2f333, 0xd3c5e7e0, 0x1b2525d4, 
    // 0x03d41410, 0x09f61a27, 0x202b3305, 
};

static const int8_t *c3_weight = (int8_t *) c3_weight_data;
