#pragma once

#include <stdint.h>

static uint32_t l2_weight_data[] = {
    0x0f0eff0e, 0x2808f30d, 0xfb1c0202, 0xea1afafb, 
    0x21f1f418, 0x031532e4, 0x08deedea, 0x24e613eb, 
    0x1414d810, 0xe30a19ee, 0xf9fce115, 0x20fff119, 
    0xe20bf2ec, 0xef13fb11, 0xe9050dda, 0xe9fae9d5, 
    0x01c620df, 0x0ce8ee30, 0x3f13ee19, 0xfbf8230e, 
    0xd716e2d8, 0xdb13170d, 0xfd00cd12, 0x01f90dd8, 
    0xf9edf3f1, 0xfce50810, 0xf4ede0f8, 0x2beeec03, 
    0x1dc3fa08, 0xf9f6dff2, 0xe91138ec, 0xdee8fffd, 
    0xdf170604, 0x11e0eff9, 0xfb01fd1b, 0x03001ac6, 
    0x1010fbca, 0xf5ea19f8, 0x39ffb2fd, 0x281007db, 
    0xfa02d8f7, 0x0319f0f6, 0x431008f7, 0xd2effbf3, 
    0x2a0be5da, 0xc0fc0eee, 0x06ebeee6, 0xc1f8f9ec, 
    0xd81c10e0, 0x11e82ef8, 0xde0f11e2, 0xbae6b117, 
    0x021d16f0, 0xd4f5f81b, 0x1112caeb, 0x07f5fce3, 
    0x15f903eb, 0xd808dfe3, 0x0bf0dbfe, 0x02fafcfa, 
    0x26190bbb, 0x00d02cc9, 0x13e9fb1c, 0x0528b621, 
    0xf0ecc4f7, 0x21110ffd, 0xcdf4e8e6, 0xf51de5df, 
    0x220cd4b1, 0x1e0ddadd, 0xf9d201d1, 0x0002f5c1, 
    0xfac819f9, 0x27d0d0d2, 0x090519f8, 0xf709ef0c, 
    0xf7f40303, 0x01fb0300, 0x0500fd07, 0xf904fff1, 
    0xf9fbea09, 0xf9f7fc02, 0xfa0b0501, 0x06020dfb, 
    0xf7faf90c, 0x01f71106, 0xfff60207, 0xf6fdfafa, 
    0xfff9fdf6, 0x02f9f512, 0xf81b0f06, 0x00eb1901, 
    0xf50103f6, 0x0ce9fdfd, 0x12ffff05, 0x01fefafb, 
    0xfe0317ff, 0x040ef5ff, 0x050bf51c, 0xfef21103, 
    0xfcf7f701, 0xf501fefb, 0x08effdff, 0xf703f90d, 
    0xf7091207, 0xed05ff15, 0x0becf706, 0xf9f9f5fb, 
    0xedfe0d08, 0xf603f5f8, 0xfb0d0eff, 0x0dfc0010, 
    0xfb0b0704, 0x0e000500, 0x05fe01fa, 0x03fafef3, 
    0x08f3fa01, 0xeff507fd, 0xfd06fff4, 0xfc0af704, 
    0x0809fbf9, 0xfbf10000, 0x04fc000c, 0xf00505fb, 
    0x03000207, 0x01fe0a06, 0xf502f506, 0xfa080c0d, 
    0x0af9f7fd, 0xfef70c02, 0x0007f7f1, 0xfff7f615, 
    0xfcfcfef9, 0x0a03fb02, 0xfffe02fc, 0xf8f9ff0a, 
    0xfe08ff0d, 0xfdff000a, 0x01ffeefd, 0xfff90902, 
    0x05fdfbf5, 0x0d07f7fc, 0x0efff913, 0x0908fbfb, 
    0xf412f9fe, 0x0003061b, 0xfdf7f201, 0x0d0406fd, 
    0x05010e05, 0x0c05fa07, 0xfdf509f5, 0x00fdf9fa, 
    0xfbfe0705, 0xff050ef2, 0xff02fefe, 0x10fefcfc, 
    0xff050500, 0x090700f6, 0xfbfd0708, 0x090bff08, 
    0x05f4f603, 0x060100fb, 0x0200fa00, 0x03faf203, 
    0x08f9f6fb, 0xfdfafc00, 0x11050bf8, 0x03fffbfe, 
    0xf50005fc, 0xf3faf906, 0x0903ff0a, 0xfc030b07, 
    0xfbf3fc00, 0x02fa02fd, 0x00010901, 0xf401f2fb, 
    0x0d0afeff, 0x0b0a0c01, 0xfef207ff, 0x03fe0afd, 
    0x0cfc020c, 0xf907050a, 0x0afaf803, 0xfd0809fc, 
    0x02fdf503, 0xf4fc0e0f, 0xfef9fb09, 0x0f0600fb, 
    0xf3fe0203, 0x02f9f9fc, 0x05fffb04, 0x02fa000a, 
    0x0705fb00, 0x03f70af7, 0x0b13f3f4, 0xfef6fcfb, 
    0xf80905fd, 0x020dfc04, 0x02fbfc05, 0xfa00ec00, 
    0xf9f6fffa, 0x03faec00, 0x0711fcf4, 0xf60af904, 
    0x06fef4fb, 0xfc050afe, 0xfdfafa04, 0xf6fc04f4, 
    0x020df1f4, 0x08fe09fd, 0x04fef902, 0xf7f8fbfd, 
    0x05fe0403, 0x00030613, 0x03fd0003, 0x0b0302fa, 
    0xf1fbfe0e, 0x0b04faf6, 0x0f030603, 0x02040802, 
    0xfb040408, 0x0bfeff00, 0xf4f209fe, 0x0bfcf307, 
    0x0001fb02, 0xfdfbfef7, 0xfcf705f9, 0xfa0405f7, 
    0x03ff03fb, 0xfd000a00, 0x08fb04ff, 0x0506f8fe, 
    0x08f906fd, 0x05ffffff, 0x03ff04fe, 0x050300fd, 
    0x030208f8, 0xf4f50413, 0x05140107, 0x0305fefe, 
    0x0bfd0604, 0x04fef3f4, 0x07f9fe04, 0x0706ff10, 
    0x06fb0aef, 0xf500f7fb, 0xfa060202, 0x03fb0c02, 
    0xf3011402, 0xfafcf606, 0xff02fbfa, 0xfff406fe, 
    0xf701f30f, 0xedf80102, 0x02f90b06, 0x0706040e, 
    0x0404fffe, 0xefff07f9, 0x010bfd0a, 0x08f7f2fe, 
    0x090101f8, 0xff00fe06, 0x09f00cfd, 0xf1062005, 
    0x0dede2ef, 0xf807f0e3, 0xf0130efb, 0xf4f101f6, 
    0xfeeeeae8, 0x0d01ef09, 0x11eb0709, 0x110af521, 
    0x0d03fbf3, 0xe6f5f9d9, 0xfcfaf9fc, 0x0a0008e7, 
    0xe11cf3fd, 0x111efeea, 0xf4f2f20a, 0x1bf710dd, 
    0xeef4fffa, 0xdae3ecfb, 0xfefaf314, 0xf10c0cf1, 
    0x14feee02, 0x05fdf8fc, 0xed07eaf3, 0xfc0afadc, 
    0xfd05f9ea, 0xf1e4fb1e, 0xf5110cf4, 0x08fdf20f, 
    0x0303f20b, 0x07eafb06, 0xf6e8f3fe, 0x040eedfd, 
    0x06f0eb05, 0x02f9fb06, 0x01060402, 0x00f0f002, 
    0x06fcfe02, 0x020104f8, 0x08010505, 0x01090801, 
    0xfcfc04fc, 0xfa01faff, 0xfff70806, 0x02f705f5, 
    0xf3f900f9, 0xfdfbf60d, 0x01f3f80a, 0x1103fc04, 
    0xff040700, 0x07f8f6fb, 0xfffaf602, 0xf80007fc, 
    0xf7f7f8fd, 0xf6f702fc, 0xf9fb0009, 0xff01fc07, 
    0xfe050302, 0xfd01f7fe, 0x0bfafc00, 0xf6fef8ff, 
    0xfe0409fe, 0x00f605fb, 0xfe030406, 0x00fefd03, 
    0x0404fdf5, 0x0108ef11, 0x050208f5, 0x0302fd10, 
    0x0403030b, 0x0608fbff, 0xff05fe09, 0xf606f400, 
    0x0a07f9f3, 0x04f4ff01, 0x171af318, 0x13eb23e9, 
    0x16f3f008, 0x1af3f4f1, 0x000e070e, 0xfa0af2d0, 
    0xf6f02510, 0xfbff08fc, 0x191516f0, 0xf81317fd, 
    0x0410fe32, 0x1228e90d, 0xddf91de5, 0xd40afb20, 
    0x020d2e0b, 0xf1edfdd8, 0x110b1df8, 0x17171c2b, 
    0x231cc8e4, 0x022bf1f4, 0xf7ff0ae1, 0xf2fc1ff9, 
    0x23f22ecb, 0xef0c05fb, 0x02e10032, 0xfb0111fb, 
    0x0e1f12e8, 0xe20bec2a, 0x14cef9d4, 0xd8ec16fa, 
    0x1a27f6be, 0x2122cc1e, 0xf5e5f21b, 0xf00414e9, 
    0x00ed1b08, 0xec01e9e0, 0xf40d0604, 0x0711fa0d, 
    0xf803fdfa, 0x000503ef, 0xfe07f0f9, 0x06000c01, 
    0x08f900fe, 0xfafef6ff, 0xfcfe0901, 0xfbfff6f7, 
    0xf904fb02, 0x020100f6, 0xf502f6fd, 0x080408fa, 
    0xfc0ffce1, 0xf60302f9, 0x04f1fe06, 0xf80efd03, 
    0xfcfafdf8, 0x1a0202fa, 0xf9f9f5f3, 0x050701fe, 
    0x0905fff3, 0x030711fe, 0xfafdf60c, 0xff06fffd, 
    0xf6fd0d07, 0xee090808, 0xfbfd02fd, 0x08060502, 
    0xff0c0702, 0x0cfefc00, 0x06040512, 0x09ff0b01, 
    0xf4f30609, 0xfbfdf1fd, 0xf2fdfe04, 0x000208ff, 
    0xf7eaf700, 0xf2eaf20b, 0xf3f0f2ff, 0x050ae307, 
    0xed18ebf6, 0x21f1120a, 0xf3f809e9, 0xfde813fe, 
    0xf306fae8, 0x00f9edf9, 0xdf0d0202, 0xfc040113, 
    0xfde9e4f3, 0xfbf5140d, 0xeee5e406, 0xe2f8ebf5, 
    0xf1f8f8fb, 0xfb080306, 0x0903f206, 0x0ae7fe19, 
    0xf600f0f7, 0xebf6f5f5, 0xfd020c12, 0xeaef08e0, 
    0xfbf107f7, 0x10eb08ff, 0x1603fd12, 0xe9f0f40d, 
    0x0a090df4, 0xf4f42501, 0x06f705db, 0x190efcdf, 
    0x0c0bf4fc, 0xf3f707f0, 0xfff707db, 0xf2e508f9, 
    0xf5e5ebf9, 0xf4fd00fd, 0x0c0b01fa, 0xf3f30513, 
    0xf5fc08f7, 0x10ecf906, 0xf2f9fd0d, 0xf30bfc02, 
    0xf3e7fb06, 0x00021909, 0xfaf510f2, 0xfcfef008, 
    0x03f3f311, 0x02f1f3f7, 0xf6fbebf7, 0xf4fdf7f9, 
    0xfff7edff, 0xfd060405, 0xeff0ed07, 0xf7ed0cfd, 
    0x090af8fd, 0xf00fefdf, 0xfe03f807, 0xf708f5f3, 
    0xf4e515fe, 0x0cfcfb05, 0x070009fa, 0xde150201, 
    0xf40cf2fc, 0x0ffeedf0, 0x06fffffc, 0xe6f0f007, 
    0xe40f0003, 0x10f103fb, 0x03fff4f3, 0x02f5f7f8, 
    0x08f802ea, 0xe9f30beb, 0x02f80201, 0xf7f6050a, 
    0xfa08f4f5, 0x09fd0500, 0xfff5fb04, 0x06040404, 
    0x0106fb09, 0xff0207ff, 0xfd000703, 0xff0fef07, 
    0xfc07fffe, 0xf9f7faf5, 0xf8fefc09, 0x010f0709, 
    0x050b01fe, 0xfb0700fc, 0x090509fd, 0xfcfbf3f2, 
    0x03fb0dfc, 0xfafefef5, 0x0a0efa0e, 0xf5050313, 
    0xf7fe0d03, 0x04fa07ff, 0xf905ff05, 0x07fff702, 
    0xf7f8f501, 0xfefffff7, 0x05060af6, 0x0300f6fc, 
    0x0f0501fb, 0xf3070600, 0x04080400, 0x0604fc19, 
    0x00f81002, 0x08ff0606, 0xfe08fc07, 0x0507fbf7, 
    0xfa04ff06, 0x030c0407, 0x02fff7fb, 0xf4020203, 
    0xf6f8fcfe, 0xfc00fa0c, 0xfd01fcfb, 0x01fa05fd, 
    0x0afc0002, 0x08fffff0, 0x07060e12, 0xfa03f5ff, 
    0x07f504f6, 0x030a0ffb, 0xfbfe08fc, 0x10ff04fe, 
    0xfa080903, 0x0507fe02, 0xfe0904fb, 0x09010aff, 
    0xf802fffe, 0xf2f704fb, 0x0309fd0b, 0x0205f3ff, 
    0x0004fffe, 0x070001fd, 0xf40cef03, 0xfeff0101, 
    0x08f40ff8, 0x05f90201, 0xfdfd0207, 0x01ff14f9, 
    0x0402fffd, 0x01fd05fd, 0xff01fefb, 0x030a02fe, 
    0x0bff0405, 0x0202fc02, 0xfb05fff7, 0xfcec121a, 
    0x0508fdf0, 0x0201def2, 0xe90affea, 0x0d0a1aff, 
    0x000303f6, 0x08fae9f7, 0xf4e2050c, 0x0de80904, 
    0xe9fde9f9, 0xf501f805, 0x00f401f8, 0xed1311ef, 
    0xee00f505, 0xf11d05ec, 0xe8f4ee09, 0x11e2efda, 
    0xfdeefff6, 0xe7e7f10a, 0xe309e807, 0xfa0809f9, 
    0x15fa03fd, 0x16fcf5e5, 0xf0f308e5, 0xf9fd05f6, 
    0x011be503, 0xdee5f41e, 0x040b01f5, 0xedeaec25, 
    0xf7eafbe7, 0x0f05fbf2, 0x020dfa06, 0x0103fedc, 
    0xfcf501fa, 0xddf30205, 0xeb04f9e6, 0xfd0afffc, 
    0x070c030a, 0xfbfe0205, 0xf7f3ff14, 0xfafef205, 
    0x03ff06f5, 0x03f8f9ff, 0x0beb01fe, 0x0705020e, 
    0x08ee0309, 0x051603f5, 0xfdfa01e4, 0x14fc0b01, 
    0xf105fefb, 0x03ee000b, 0xebfbf80e, 0xfe140afa, 
    0xf8f81314, 0x0afe100c, 0x0cf4f70c, 0x0a00e9f8, 
    0xf503fce8, 0xf5f724ee, 0x0005f404, 0x001002fb, 
    0x0d020803, 0xf3fc000a, 0xfe0ff906, 0x19fe0bff, 
    0xffeef510, 0xf006f70f, 0xf30f070b, 0xfeeded06, 
    0xff07f90c, 0xf4ed040f, 0xf8fdfa02, 0xf50cfc01, 
    0x02fffd09, 0xfa0a06f8, 0x060df909, 0x06f703fd, 
    0xfd02fdfa, 0xfdf20704, 0x0004fafa, 0xf50af80f, 
    0xfd00fbec, 0x050afc09, 0x0414fdff, 0xfffffafb, 
    0xfcfeffe9, 0xfafb0107, 0x01fc04f9, 0xf4090f0a, 
    0xffff06f6, 0x0208f3f7, 0x0711f0e4, 0x0409fff7, 
    0xf0000202, 0xfc07fb02, 0x10fa0afc, 0x08fe0800, 
    0x0ffb0e01, 0x01fd0f02, 0xee120103, 0x09f80bfb, 
    0x05f5f805, 0xfafbeaf7, 0x01fa000b, 0x0dffff04, 
    0x0a0004fb, 0xfd01f602, 0x05010908, 0xfffef9fd, 
    0xfdff05fb, 0x01fefcf9, 0x00fbfa02, 0xebf4f00b, 
    0xf7e90d12, 0xe4f80c08, 0x0b1402ef, 0xe30206ea, 
    0xedfad72a, 0x000e1b11, 0x1e1f04fe, 0x14fa332b, 
    0x10ece9fe, 0xfb141e01, 0xf30d0700, 0xf5f4f619, 
    0x001402fa, 0x1103db25, 0x02f00e03, 0xf4fafd04, 
    0x07fef7f9, 0xf1fb01f0, 0x11fcfbff, 0x14ff0c24, 
    0x1a0b0104, 0x071bf603, 0x1023f111, 0xeb01fe11, 
    0x1003fafe, 0x15f2fce1, 0xe90b0803, 0xdbebfc01, 
    0x030b2aeb, 0xf1e5f90e, 0xf70f07f6, 0x07fcf5f2, 
    0xf2fb13fd, 0xfe00ec06, 0x14ec0415, 0xf1fc0809, 
    0xf408f1f0, 0x0df6dd1b, 0x04f60ffe, 0xfa02fa04, 
    0x15ede70d, 0x1b0a19f7, 0x03f5dfdb, 0x01ffef01, 
    0xd60209ea, 0x0ff807df, 0xf100fa18, 0x012bfdf4, 
    0xeefe07f0, 0xf5fc03fe, 0xd8ed0305, 0xf80512f4, 
    0x0502061f, 0x1606f3fc, 0x140b07fa, 0x13111de4, 
    0xf5f104e2, 0x22e8f200, 0xe90308ee, 0x20f209f6, 
    0xfdfb0ce4, 0x081a0b05, 0xe622f6fc, 0xe818fef7, 
    0xfa111908, 0xf9edf0e0, 0x0ff3f5fb, 0xfa0debfb, 
    0xef08d1e2, 0xfbda0bde, 0x010ff802, 0xe9f3f8e8, 
    0xf9f7f8fb, 0x0608fe01, 0xf006f90f, 0x01f41af0, 
    0xf305f9f8, 0x01feff1b, 0xfe030211, 0xff020100, 
    0xf4efeefb, 0xf1fe040f, 0xf30df4f8, 0xdf0afc04, 
    0x07ec11f6, 0x19eff1fb, 0xf90bfbde, 0xfae903fb, 
    0xffededf8, 0x0724fb07, 0xeaf50b0b, 0xf0ee0cfc, 
    0x220af1fc, 0xf50adce9, 0xf504e9df, 0x000007ff, 
    0xff080efd, 0xfbf9f5f6, 0x1bd70cf3, 0xf1fe021a, 
    0xee12f0fb, 0x2adff9f4, 0x12ff0f02, 0xe809f90b, 
    0xdff51201, 0xfae2ecf5, 0x03f4eef6, 0xebf408ff, 
    0xfffcfa00, 0xed0afd01, 0x0af3fbfd, 0xf10c0cfe, 
    0x14fc0101, 0x28f3f8e5, 0xe7faf4dc, 0xf8f61dd6, 
    0x05f7fbfd, 0xd5f6fdec, 0x1c0ee9d7, 0x01d7070e, 
    0xe8fcfdf7, 0xfaf0f6f2, 0xec09f6f8, 0xf30826f2, 
    0xf30eecfb, 0xebf5e0d7, 0xfb08f5c6, 0x06100f4b, 
    0x26f7f3e6, 0xebeb09c6, 0xd9e41004, 0xffee0102, 
    0xf6f106f1, 0x1afff4e8, 0xe608e200, 0xfef603e3, 
    0xe91ff0e2, 0xe910d8ff, 0xe0f5c203, 0xf50a24f4, 
    0xfc151ff6, 0x0d06cee1, 0xfb09e60e, 0xfc1af9f0, 
    0x00f5e3dc, 0xe9e8ccfc, 0xf7f3f701, 0xeb08d8fb, 
    0x15f1f2fa, 0x280f1dda, 0xdc160cc8, 0x08f3f7db, 
    0xe3d2e627, 0x2902ed52, 0xfa1741c2, 0xe1cb07ef, 
    0xd3c2fffe, 0xf816b1d5, 0xd83c192a, 0xfeddcc11, 
    0xe3e42ff3, 0xf31004d9, 0xf9e114f0, 0xbbea1fc2, 
    0x0c11c5fb, 0x22fafd00, 0x0219f300, 0x3f2b04e9, 
    0xd603d60d, 0xc7df00e9, 0xfe1e0e07, 0xe3f70d02, 
    0xebc2f9d0, 0x23d100d0, 0x0d081bf1, 0xcc19f310, 
    0x43b9e0bf, 0x47322d12, 0x1cd6d6f8, 0x0c5737dd, 
    0x2cdf04f8, 0x19ebfce5, 0x0d09e612, 0x08f335db, 
    0xf00be3fe, 0xee03d9df, 0x03f5fe05, 0x00fd03ee, 
    0xf705fff8, 0x0c07f518, 0xfcf0f109, 0xed080b03, 
    0xfd05fef7, 0xfcf7061c, 0xf50d0400, 0x08051de8, 
    0xff0410f0, 0x0a120320, 0xf909f105, 0xf0150200, 
    0xfafe0315, 0x0505fc0e, 0xf8effede, 0xf609f80c, 
    0x100b01f7, 0x1e03e9fe, 0x011017e5, 0x00f9f80a, 
    0xe7ff1201, 0x10f90505, 0xf40f1402, 0x01f4fc17, 
    0xf5ea0efe, 0x050217df, 0xf9fdfa0c, 0xf9efe9ed, 
    0xf4f60319, 0x091201fb, 0x1606f5ff, 0xfefefc0b, 
    0x010a11eb, 0x01010b09, 0x03ff03f7, 0xfffe0a0a, 
    0xd6e1ee07, 0x00090515, 0xf809d6fe, 0xeefa0bfd, 
    0x1d13d5f4, 0x4337fd20, 0x20e7c60f, 0xf1dc01fb, 
    0x0df4fe14, 0x1ce40709, 0x0529c8e6, 0x06feed05, 
    0xf61309ef, 0xddf9e7fe, 0x2fe013d7, 0x30c11afb, 
    0x0f2adcea, 0xedd4ed1b, 0x1715f6fc, 0x050049f0, 
    0xffeefbf3, 0x04e3d701, 0x20d9e8fd, 0xfe0c36ec, 
    0x0a09fb12, 0x1b0510ea, 0xf7c82bdc, 0x06fb18fd, 
    0xf4f7efde, 0xf8d1f121, 0x0300eff5, 0x0e001004, 
    0xbf0d07de, 0x19e2f9f9, 0xf8e60c08, 0xf30021f7, 
    0xeef4fbea, 0xeae91224, 0xfe07fcfa, 0xf5e810f4, 
    0x370ef119, 0x10fbfafd, 0x09000a00, 0xe7030ffe, 
    0xf40e11d9, 0x0df81406, 0xf3f30ff7, 0xaefcfdf7, 
    0xf0f5fb36, 0x25fef110, 0xe3edf600, 0x0508eb09, 
    0xf8281313, 0xb3d509c1, 0x04edda26, 0x35ec0fe7, 
    0x5610f830, 0xf821f904, 0xfbde09e4, 0xe4fd2efa, 
    0xf0e7f1c7, 0x18f90bbc, 0xf4a7f721, 0x0df3ea39, 
    0xecef0400, 0x00ede908, 0xc7d30200, 0xb5f8f0cd, 
    0x2610f1ed, 0x1918f917, 0xd2d2fbe9, 0x14012bd2, 
    0x0ee2f608, 0xb8dbc7e7, 0xfc0b2104, 0xf70cff14, 
    0x0f020ffa, 0x11e709ee, 0x04f5eff5, 0x060209e7, 
    0xee07fbef, 0xeaf21f03, 0x00ee03f7, 0x06fcf603, 
    0xf604ff10, 0x01ee0208, 0xf6040509, 0x05f5f3fb, 
    0x1006ef09, 0x0518f5f8, 0xff18f911, 0x07e81704, 
    0x09f812f9, 0x0cf5f6fb, 0x0205e4fc, 0xfc0ef2ff, 
    0xf6e7130d, 0x090aeffb, 0x0f0a0d0a, 0x05f2e80a, 
    0xf3d7fd11, 0x0bf5ea03, 0x13f5f9f7, 0xef01f9f8, 
    0xfe1e0202, 0xed071d09, 0xf9f9e70d, 0x16f4fe0b, 
    0xe1130907, 0xe7eee9f8, 0x1cf207fa, 0xf8030ffc, 
    0xf70b0207, 0x0b02f4fd, 0xf910fbfd, 0x07010401, 
    0xfefa0109, 0x020ffafb, 0x08fd080d, 0xfaf810f5, 
    0xf8080800, 0xfcf107fa, 0x06fd0300, 0x00fefbf7, 
    0xf604f401, 0xe80d07ff, 0x0a05fc0d, 0xf80917fc, 
    0x0b04fe08, 0xf5fe0703, 0xfbfd08f5, 0xf1020607, 
    0x060e0407, 0xf6030f01, 0x0b04ff08, 0x051001f6, 
    0x0d07f9fc, 0x0003fbfd, 0xf7fe0703, 0x0708fe05, 
    0xfb0cff0b, 0x1306fa05, 0xfd04f9f2, 0x081101ec, 
    0xf70ffd06, 0x12fe01f8, 0xf2f0f8fb, 0xfe0af5fb, 
    0x0c080a05, 0xfffd0901, 0x0201fd00, 0x0203f1f5, 
    0xfbfe0403, 0xee0e04fa, 0x00021203, 0x05fc03ed, 
    0xf7000c0b, 0x03020801, 0xfdfd040d, 0xfefe03f6, 
    0xfe0b07fa, 0xfafff9f6, 0xf3080cff, 0xfcfb05ff, 
    0xed0bff06, 0xfef404f6, 0x09050706, 0x06f701f9, 
    0x0504fbf9, 0xfc00ff07, 0xf911f401, 0xf6f20300, 
    0x050008fe, 0x010e0201, 0xfc080302, 0x05ed05fe, 
    0x01fd0af4, 0xfeff01f9, 0xff0500f6, 0xf9fe0005, 
    0xff07fefc, 0x060a0517, 0x050203fe, 0x09040602, 
    0xfcfd02ff, 0x04faf400, 0x010604ff, 0xeff603ff, 
    0x00080a0d, 0xfe1207fe, 0x06f6010d, 0xf6fcfffa, 
    0x0e110506, 0xeefe04f5, 0x0304050a, 0xf306fd05, 
    0x0beef5fa, 0xf6f60ef9, 0x05040628, 0x180af001, 
    0xee040fff, 0x09fef302, 0xf9030903, 0xf9f703ee, 
    0x08e9f90d, 0x09f408ff, 0x080706f6, 0xf8fe030c, 
    0xfb070af5, 0x02010feb, 0x02fcfee7, 0x05f5f9f1, 
    0xeaeaf509, 0x0e010108, 0xf800fc10, 0x01f9eb04, 
    0xf2fdfb08, 0xf7fc04e5, 0x0e04f40a, 0x0e19040e, 
    0xf7f700f5, 0xf6f70af1, 0x00f30900, 0xf916fcff, 
    0x01051900, 0x0805ff0a, 0xf9ef0809, 0x00fe0400, 
    0x0300f2fe, 0xfc070506, 0xf7fefb03, 0xfef902eb, 
    0x0211f2fe, 0xfbf8120f, 0x05f7f910, 0x02070001, 
    0x110802f9, 0x0705fc08, 0x0f07fbfe, 0xf9f9f6fd, 
    0xf409fa07, 0xfd0205fe, 0x00f80603, 0x0cfb0cfb, 
    0xfe040100, 0xfcf8fefb, 0x0bf8fa05, 0x00030802, 
    0xfa000104, 0x0102f8fe, 0x07fbfcff, 0xff02010a, 
    0xfd0b0b03, 0xf100fdfe, 0x0100fd07, 0xf3fef8f7, 
    0x0208f8ff, 0x07fb0a09, 0x0006fb04, 0xf9fc01fd, 
    0x0afe10f8, 0x0501fdf8, 0xf6fcf60a, 0x09e9fb06, 
    0xf717e7f4, 0xf7fff4f6, 0x0e070014, 0x18e30001, 
    0x000219fd, 0x03efe5ec, 0xe52005e0, 0x02f00702, 
    0xfdf6df15, 0xf6eeffed, 0xfef4ef0a, 0x060afe01, 
    0x0eedeff9, 0xde07eff1, 0x0aef1229, 0xfaf2f3f4, 
    0xf7d2fd00, 0xeb061af3, 0x1506fa0c, 0x1517f70b, 
    0x04fb001d, 0x0b0ce706, 0x13e3eef9, 0x0bff03df, 
    0xfafe0dfa, 0xe7ffd925, 0x11e62be2, 0x1be70f18, 
    0x16ff09f1, 0x060ff827, 0xfb10020a, 0x24f013d7, 
    0x06e1f112, 0x0819f902, 0xfc16fd0a, 0x00eddf06, 
    0x070509f6, 0x08040608, 0xf703fcf1, 0x0603fefb, 
    0x0900fdf7, 0xfff1ff03, 0xf70401fb, 0xff0107fc, 
    0x05ff0a05, 0x0efcf6fb, 0xfcfbfe04, 0xfefa08fc, 
    0xfcf9040b, 0xfffff904, 0x03091006, 0x01020a10, 
    0x070407fd, 0x00f005f4, 0xfb18ff09, 0x0702fe05, 
    0x040204fb, 0xfbfcfd01, 0xff050100, 0xf702f500, 
    0x0607f201, 0x02f20405, 0xfffcfaf8, 0xfeff07fb, 
    0xfa01ff0b, 0x0a061102, 0xf9060b05, 0xf41a02f5, 
    0x01ff02f2, 0x00f5fbf9, 0x02110cf3, 0xf6faef05, 
    0xf1fff500, 0x0608f804, 0xe7ffee01, 0xedfb05fc, 
    0x0b02ea0b, 0x0ee9f00c, 0xe0f703fc, 0x07f9ecfa, 
    0xfee819f8, 0xfa100fed, 0xfe1c27eb, 0x0b1612ed, 
    0x100a05e8, 0xf81203fd, 0x030dfcd6, 0xfdf1f204, 
    0x0c0bf0fc, 0x10f7e0f2, 0xe51d0cf2, 0xf4231efc, 
    0x0ce9e7fb, 0xf80524fc, 0x0df2f90e, 0xf1ff081b, 
    0x0c0a26ef, 0xf21b0413, 0x03fafffb, 0xd9ee05e8, 
    0x050c21de, 0xef12f009, 0xfaf0daed, 0xef08f90e, 
    0xed03e1fc, 0xeffcf001, 0xf5fff532, 0xf01b08f7, 
    0xfdfd09fb, 0xf6ee05f2, 0xe7ff0400, 0x090500f6, 
    0xfd030702, 0xf9061002, 0x06fc0b01, 0x000202fc, 
    0xf6fefe02, 0x0b0d0d02, 0x0508fa06, 0x01ff05fb, 
    0x000400e5, 0xfa20ee07, 0xf40404f4, 0xff0401ff, 
    0xf1040311, 0xfef31006, 0xfff10605, 0xfa0df80f, 
    0x02ff05f7, 0xff0003f2, 0x030bfc0d, 0x0efcf702, 
    0xfdf500f9, 0xf816faff, 0x02ff15f3, 0xfe0a07fe, 
    0xf20100fb, 0xf20109fe, 0x03000704, 0xfbfb0906, 
    0x09f5fafd, 0x0bf8fd0c, 0x050a0f04, 0x05f40ffc, 
    0x03040af4, 0x02fd04fb, 0x030005fe, 0xfafa011a, 
    0xfcfdfc02, 0xfb0f0d10, 0xe9020112, 0x2d36f916, 
    0x0d232003, 0x07e6ff09, 0xf8ff1e15, 0x0c0a1bf6, 
    0xeff0d9fd, 0xfaddfd24, 0xd5f51913, 0x0cf20305, 
    0xfef0f0e5, 0x12fe1116, 0xffe8cffe, 0xef06ff14, 
    0xdd1505fe, 0x04fe1123, 0x18e7fbde, 0x1604051d, 
    0x0df3f811, 0x17f2efe8, 0x1102f9f7, 0xf9e301d5, 
    0x0df2f1e6, 0x19e21d09, 0x1beb1c2f, 0xde08f902, 
    0x12f8fd09, 0xc7141b06, 0xdf171bba, 0x09021f00, 
    0x000918f5, 0xdfdafae9, 0x13fc15f2, 0x12fc18f6, 
    0xe2d2ed0b, 0xfd1613ff, 0xfe14fffd, 0xfefafb0e, 
    0xec0e03f4, 0x150a1e13, 0xfc12fdfb, 0x0619fc06, 
    0xf9e9d9f9, 0x0e12070c, 0x06fa2bfc, 0xfa14fe06, 
    0x0205d811, 0xfaffe3f8, 0x04f8010f, 0xe4f3f7fc, 
    0xfffbfd19, 0xfdd90f22, 0xfd12df02, 0x0120010d, 
    0xe73103e0, 0x02f705f9, 0xfefd0203, 0xf408fbff, 
    0xeacf1e01, 0xf4fbfd0e, 0xfffb0f08, 0xe5020ee7, 
    0xf70a0b0c, 0xdbfce9f4, 0xee0b090a, 0xf9ece704, 
    0x0efcf2f5, 0x07fc1602, 0x04f104f8, 0x08d6ebf9, 
    0x1d06feef, 0xe90620eb, 0x05fcfcf8, 0x0508f50e, 
    0xf8fdf908, 0xf6041af5, 0x03f8f904, 0xfef1fb0f, 
    0xf20202f8, 0x18f7fdfe, 0xfd03060c, 0x04fd01fc, 
    0x010603fd, 0xfa0613fa, 0x0afe0600, 0xfb06031b, 
    0xf10d09fc, 0x09050b08, 0x08f7121a, 0x0a0301eb, 
    0x02fcf8ee, 0x0cf3f206, 0x1804ee02, 0xf71201f4, 
    0xffed0b03, 0xff001111, 0x05fa0408, 0xfe0703ff, 
    0xf5f9f117, 0xf0fbf701, 0xf9f6fef9, 0xec00ed0e, 
    0x01f3f3f7, 0xf6f000fb, 0xfd0c0e03, 0x0f0bf216, 
    0x04f304fc, 0xe9030507, 0x0cf3f6fc, 0x03fe13ed, 
    0x08f10407, 0x1001fbf5, 0xfcf5fbfa, 0x04fe000d, 
    0xf209f407, 0x0101fcff, 0xf8fa0a05, 0xf8f8fcff, 
    0xf4ebff08, 0x02020601, 0xfa0afbfc, 0x03faf9fd, 
    0x01030afb, 0x040204f7, 0x0100fcf3, 0xf30bfb04, 
    0x0afbfef8, 0xfb02efef, 0xfe08fef9, 0x06080908, 
    0x0103fc10, 0xfd06f9f6, 0x0dfbfff8, 0xfe0110fe, 
    0xf9f80a02, 0x06fffcfa, 0xf613fc01, 0xf806fd00, 
    0x04fd0cfb, 0xfc020011, 0x0203fa02, 0xfe06f30c, 
    0x07fa010b, 0x0503f8f2, 0x07fcef00, 0x090a0ff9, 
    0x15070907, 0xfefefbfd, 0x0bf001f9, 0x12f00220, 
    0xf90f09e6, 0x070bebff, 0xfff1eef7, 0x091e02fc, 
    0xed10f8eb, 0x0401e8f6, 0xfdf617fc, 0xffd305e5, 
    0xd309fe03, 0xf31afb0b, 0x1201f9ef, 0x04fd1cfb, 
    0xdcf9d403, 0xe822face, 0xdef0f3f4, 0x0002e106, 
    0x0cebf20e, 0xfdfae614, 0xe007e9ee, 0xfafa0012, 
    0x11061c06, 0x21fefcea, 0x04fa09ef, 0x0df10815, 
    0x0915f40d, 0xcee9e91b, 0x07f70607, 0xe60af115, 
    0x0102fec6, 0x170f0ad7, 0x11feec0e, 0x04ddfbe1, 
    0x01ef06f2, 0xf4dc19f2, 0xeaf9e600, 0xfc070807, 
    0xff000d08, 0xfd04051d, 0x0ae819e9, 0x0b02f90b, 
    0xeef707fd, 0xedfdeaf8, 0x0e080202, 0xf90c0df2, 
    0xfefd07ff, 0x04f3040e, 0xf9e429fb, 0x0ef209f2, 
    0xe6ece00e, 0x0c0d1300, 0x1001f8f9, 0xf51e0f04, 
    0x19d81b08, 0xfcfd080d, 0xfeece605, 0x08fadbf0, 
    0x020422fc, 0xe7ff060a, 0x0302f904, 0xfe050010, 
    0xfdec030c, 0x17e0ea13, 0x16f4de16, 0x0ae61617, 
    0xfbf3ea07, 0xf2112b15, 0xfc010e04, 0x07f6e3f9, 
    0xf722e9f1, 0xed09101a, 0xf306f302, 0xf9050125, 
    0xf6f918fc, 0xfc090f0c, 0x07010b01, 0x2300fffb, 
    0xedfbf0f8, 0xfbfa0606, 0xfb0a04f7, 0x0505fb00, 
    0x06ecfe04, 0x0303fb04, 0xf5020aff, 0x0a00fbf8, 
    0x010200ea, 0xe6030010, 0xfaff0ee3, 0xf305050c, 
    0x080111fe, 0x0e03090c, 0x11fa04f0, 0xee0103f3, 
    0xf9fef5e6, 0x03030403, 0x010005fe, 0x06fffe00, 
    0x010d0e1b, 0xf20c0404, 0x06fef70b, 0xf0fd04ea, 
    0x07fe0fec, 0xf6fd09fe, 0x21f7faeb, 0x080d000f, 
    0xe5fff2fb, 0xf1f8fe03, 0x0b03f704, 0x0101f311, 
    0x010cf308, 0x0f051404, 0xfff0f804, 0xe7edfb04, 
    0xf511fc02, 0x0cf906fd, 0xed05ef00, 0xf9f8fdfa, 
    0x000cefd8, 0x030ff6fe, 0x05e408d6, 0x18fae913, 
    0xf4e9f11b, 0xf9c92b1d, 0x1421ffff, 0xf6f4faeb, 
    0x2900f00a, 0xfd1b09ea, 0xf13a09e3, 0xfbe632f6, 
    0xf7fafa1b, 0xe9e9d319, 0x0004cf0a, 0xfe0b0523, 
    0xecdafcf4, 0x0533f202, 0x1121dc1a, 0xfae0ed0b, 
    0xfeea0322, 0x18e3ede7, 0x18e81915, 0x02ecf401, 
    0xfc2b2cf1, 0xedfb0c0f, 0xfcf2c8fc, 0xeb21e9fc, 
    0xe3351c27, 0xf70ff31a, 0x1efffe0f, 0xe6fd331d, 
    0x021315f7, 0x07f8f223, 0x08f10506, 0xeb161f0b, 
    0xf8fb01f8, 0x0826fdfb, 0x11e4cfe1, 0x2714fef3, 
    0xd5f91bf3, 0xf60c10ed, 0xf4000cf9, 0xe22e01dd, 
    0xeeff41e8, 0x0f0c07e2, 0xd8000012, 0x1616fff0, 
    0x141ee929, 0x0e01e701, 0x0a0bfeea, 0xf81a21f5, 
    0xe9e9fded, 0x14fd110c, 0x17fbf216, 0xfcf1090e, 
    0xed1209ff, 0x110f07fc, 0xe029d004, 0xeeddfb04, 
    0xf4230a0b, 0xe702eaf2, 0x0f0bde10, 0xe8ffe606, 
    0xdaf1e7f0, 0x01010ef9, 0x060cfe07, 0xfde712f4, 
    0xf2e20bf6, 0xf90e0cff, 0x0ffe0dfb, 0xe7fafdee, 
    0xffee1ced, 0x0be6e70b, 0xf300f804, 0xfb080def, 
    0xf5f40cdf, 0x011d0001, 0xe315fbff, 0xf0fd081d, 
    0x01d605e1, 0xfe0fe80c, 0xf901f9ee, 0x0dfa04eb, 
    0xf5fdfcf7, 0x092ef7f5, 0xebe712ff, 0xeae70704, 
    0xff0eeef6, 0xf8ffe7fc, 0x04f6ffd7, 0xef03f807, 
    0xf811fbfa, 0x10f5f0f7, 0x13e716e4, 0xf2ffe917, 
    0xf308fef4, 0x1de1f7e5, 0x161b02f6, 0xdffd1308, 
    0xf8090c03, 0x0fe6fef7, 0xf401f3f1, 0xcffc0315, 
    0xf4fc0a03, 0xf7fd0106, 0xde050df4, 0xe70b0efd, 
    0x10f11a20, 0x0af3ef00, 0x0a11fe19, 0x031922e3, 
    0x2815fbff, 0xe601d5db, 0x251dfcd7, 0xfbfb0807, 
    0xea1b0ef6, 0xcb08e8ff, 0xf0f8fefb, 0x04fe17e2, 
    0x15f20019, 0xe01bd5e0, 0x0a2a05cf, 0xeb220619, 
    0x18110014, 0xf7eb0ad3, 0xfbf0f2fa, 0x05f3f4f2, 
    0x06f307fc, 0x26fffc1c, 0x0af8f9e2, 0x29eb05e5, 
    0x12e6fb10, 0xe722eb0a, 0xe200d3f3, 0x011af3ec, 
    0xc4181701, 0xeb35cab8, 0xfa01faee, 0x0905efe1, 
    0xfed7fdd0, 0xfeee03d3, 0xf6d403f0, 0xdbdbd30a, 
    0x010c07fe, 0x171811f0, 0xf61816fd, 0xe6e60bdd, 
    0xf8ceed08, 0x0302f619, 0x1414e6ee, 0xfcc0f4ed, 
    0xd2f30d1c, 0xe1ef07e1, 0xf714e61e, 0xfffcc3f8, 
    0xf9d817e5, 0xf716e9ea, 0xefd410ec, 0x13da0705, 
    0x0911f114, 0x20f5f200, 0xeae4320f, 0x21f61bec, 
    0xfffcebdf, 0xebc505de, 0xf62afff3, 0xf0fc2bfe, 
    0xf5cff4dd, 0x1514f2da, 0x11101df2, 0xca02fe0d, 
    0xfecfe0eb, 0x10f2e826, 0xf0cdcf21, 0x0220e801, 
    0x10e2060e, 0x14e6eef6, 0x13eae7ed, 0xfcee0d04, 
    0xbd0f0800, 0x2000d2d2, 0x03fa091c, 0xf60ef6f3, 
    0xf31703fc, 0x0b04060d, 0x13fdf80f, 0xeefffaf9, 
    0x0609eeff, 0x02091313, 0xf2ff02fd, 0xf91a0df9, 
    0x0ffa10f4, 0xfbfa07fd, 0xff1905fd, 0x01e6f2fd, 
    0xff1117fb, 0x0c0500f0, 0x03ff03fa, 0xee150403, 
    0x062700f8, 0x05fceafb, 0x0e1001fa, 0xe6ed010d, 
    0xfe04faee, 0xfb0418e6, 0xfa19fc09, 0x04f5f8f9, 
    0xeff804f8, 0x1d1214f0, 0xf81de513, 0x04f5f0f3, 
    0xff0bee12, 0xf2eaf2f2, 0xfc080304, 0xfc0b0023, 
    0xf3180edc, 0xf3061203, 0xf9fffafd, 0x11f2fffe, 
    0xd11de408, 0xf5d60a3e, 0xdd0c0520, 0x22221beb, 
    0xf7132110, 0xeff2e714, 0x281bf5d6, 0xeee91b3b, 
    0xe817f003, 0xfb0ff815, 0x042ef4c7, 0x230502af, 
    0x091e2108, 0xe008c203, 0x0721eef6, 0x13c6e914, 
    0x0df4e812, 0x1edbfc03, 0xf9200c1d, 0xfd2c3ec8, 
    0x1cea001d, 0x17c7e6c6, 0x33ba1df4, 0xdc01e8f1, 
    0xf9fa082b, 0x1f1ced05, 0x13081cc7, 0xf73b691c, 
    0x07db27f2, 0x01f9e807, 0xf7fbe7f9, 0x0023e826, 
    0xe5253d0a, 0x42c9d3fc, 0xfa071b00, 0xf545ccf5, 
    0x3afefecc, 0x20172d23, 0x251d180c, 0xd43e13cf, 
    0x4702dd28, 0xf3034d41, 0xea11ebfa, 0xedf5ffe1, 
    0x02412719, 0x36fb3436, 0xcabbd5b1, 0xb4df3ffa, 
    0xbc000021, 0x0415f80f, 0x0d001537, 0xe024d619, 
    0x262dfb2e, 0xc3221ef1, 0x15dcc419, 0x4adf03ea, 
    0x1bcfd609, 0xc7200dec, 0xbdd240fc, 0x35fe09e0, 
    0xddd7febe, 0x0e1ef80f, 0x07c0eb26, 0x0be6b233, 
    0xd7fe16d8, 0xe1fed540, 0xb9dbffe0, 0xc1f6ddb1, 
    0xcf1740e2, 0x2bf3de05, 0xb0aa05c7, 0x1df549e8, 
    0x17cf3b04, 0xc2f11346, 0x4c304504, 0xe701f702, 
    0x13091115, 0x090016f5, 0x0708f0f6, 0x0efa00f9, 
    0xf9000608, 0x06fa040d, 0xed020201, 0xfdfcef0f, 
    0x0810feff, 0x051811f7, 0x08fcf00e, 0xf902fc00, 
    0xf909e814, 0x040305fa, 0x050201fc, 0x06ee0b0d, 
    0x01f8050b, 0x0119f403, 0xfdfd050a, 0x0304eb0a, 
    0xfbf20efb, 0x04fa0c01, 0x08080a03, 0x050205f9, 
    0xf300fa10, 0x09f6fa00, 0x0a08fd10, 0x1dfa15f9, 
    0x090c05f8, 0xff0410ff, 0x06fff814, 0xf6120a14, 
    0xfae91306, 0xfafa0cf7, 0xf9fb02fc, 0x0b05ff0a, 
    0xfb0ef8f5, 0x0ef1fe0a, 0x0701fd0b, 0xee06f504, 
    0xf80109fd, 0x00f506f9, 0x07000b01, 0x0003fdf9, 
    0xea0805f8, 0x050e060a, 0xfbf4f603, 0xfbf4fe00, 
    0xfcf5eefa, 0xf7f906fb, 0xf6fa1305, 0x0516050b, 
    0xf8fc0413, 0x060b04fd, 0xf6fd08fa, 0x01110702, 
    0x0e0601fe, 0x020bf803, 0x11fcfdf5, 0x0f040015, 
    0xfdfef7f6, 0x0102fff2, 0x010102fc, 0x01f40809, 
    0x11f40ff8, 0x0a07fd08, 0x030e0514, 0xfe0b04fe, 
    0xf817f0f9, 0x06020307, 0x10fdf90d, 0xfafe0106, 
    0xfe090205, 0x0303ff00, 0x07f708f8, 0x0ef90b04, 
    0x04f90102, 0xf5000203, 0x0802f70c, 0x0d05fef2, 
    0xfe0bfbf1, 0xfa06f0f4, 0x04000104, 0x0406f204, 
    0xfffe01f4, 0xfa05f5fe, 0xf407f2fe, 0xfa0102f6, 
    0x0dfaf7ff, 0x0906f8ff, 0xfb0af901, 0xfcf5f900, 
    0x03fe040d, 0x0102f6fc, 0x03070401, 0xf1f6eefd, 
    0x04f9f902, 0x0012f7f9, 0x0206f6fb, 0xf7ec080e, 
    0xf5fffc06, 0x09050104, 0x05030906, 0x0307fd0a, 
    0x02040b02, 0x00fa0b02, 0xf9fdfc02, 0xeff002fb, 
    0x0205f6fb, 0xff07f9ff, 0xf900020b, 0xf3fefafd, 
    0x0c05fe0f, 0xf7050d00, 0x11fbfd07, 0xfff7f9f4, 
    0xff0bfd07, 0xfe0201f9, 0xff0e07fc, 0x0bfe0d0a, 
    0x07e3040d, 0xee000e0c, 0xfbfdf91d, 0x0204f4f5, 
    0xe6160505, 0xfc0f000c, 0xfb05fff9, 0xf0fdfeee, 
    0xfefd000c, 0x09fb0b0a, 0x09020301, 0xfb0b1503, 
    0xfcfc0d0c, 0x06031300, 0x04020600, 0x1d05fffb, 
    0xe7effa0b, 0x000afc0c, 0x02f7f811, 0xfffbf116, 
    0xfcfa0300, 0xe40305eb, 0x0e14fdfd, 0x0612fd13, 
    0xf9e6fef0, 0xf6f323ef, 0x02f81002, 0xfbff03f8, 
    0xfd000ff3, 0xf7ff06fd, 0x00fbf2ff, 0xfefd04f2, 
    0x0505fb08, 0x01000400, 0xf9000905, 0xfe04fc04, 
    0x02f90c04, 0xff010400, 0xfff8030f, 0x00fc0408, 
    0x0302fdfd, 0xfd02ff04, 0xfb0705fe, 0xfffcf5f8, 
    0x0203f800, 0x0af80508, 0xfafe01fd, 0x03f8fd0b, 
    0x040106ff, 0x020fff07, 0x08f00107, 0xf6f6fa05, 
    0x01ff0804, 0x0af602fc, 0x07fe05f9, 0xfdfe0609, 
    0x00f7fcfc, 0x07feffff, 0xf406faf9, 0x02fd07fe, 
    0xfffef505, 0x060302f6, 0x00fd0608, 0x08070803, 
    0xfbfc0cfc, 0x06070f05, 0x0cf50700, 0xf4e02603, 
    0xdaf5020e, 0xfa1f0300, 0xf22200f4, 0x00fe12f3, 
    0x2007f7f6, 0x06f8d8f7, 0xe30d07f5, 0x0af200fd, 
    0xd708f30c, 0x0e1002f1, 0xe9f421f8, 0x1bdefa04, 
    0x0cf50300, 0xf602eae4, 0xf60f110f, 0x01010a24, 
    0x0aedf51e, 0xf524f7fd, 0xfa03f8d1, 0x15f5cc0c, 
    0x0a02f007, 0x1addf219, 0x01e90fee, 0x29191903, 
    0xf912101e, 0xc7e1dcfc, 0x0211f8ea, 0xce1a020c, 
    0x0d0a18e7, 0x02ecfb04, 0xe4e50ad6, 0x04e920c2, 
    0x17fef723, 0xeefe09f1, 0x05fcf607, 0xfbf1fbfa, 
    0x0304ffff, 0xfffb09ff, 0x1006fd0b, 0xfc06fa00, 
    0xfdf50208, 0xf3f8080f, 0xf5f6f0fb, 0x0814f8fc, 
    0xfffe0a09, 0x0109fcfa, 0xfc0507fc, 0x0007fbfe, 
    0xfffc0907, 0x010e11f2, 0x020bfd07, 0x080bfffd, 
    0xf50cfafa, 0xf8f7020a, 0x010104fc, 0x0ffcfe06, 
    0x0200ff09, 0x02fc06ff, 0x00f8f1ff, 0xf7fb0805, 
    0x08f70703, 0x080007f6, 0x06090201, 0xfe050bf4, 
    0x0bfdfb05, 0x0d0201f4, 0xfc010001, 0x06fffb02, 
    0x090309fd, 0xfef0faf5, 0xfefc03f8, 0x04010103, 
    0xfdff0700, 0xfbfb0800, 0x0d1feae4, 0x21011bfe, 
    0x05fc15e6, 0x0a010704, 0xd9eae9fd, 0xfbfa120f, 
    0xfef515fd, 0x0113fbf3, 0xf8fef3f6, 0x25f20dd4, 
    0xf4f8ffee, 0x09fdfe0f, 0x09e502fb, 0x10f02108, 
    0xfae9050e, 0x0bf6151c, 0x1efd0b02, 0xed15f3d8, 
    0x06e6ff00, 0x0be9150c, 0xfeee1a0c, 0xeff7f9ce, 
    0x01f303ea, 0x160efe20, 0xeb20ed02, 0xebebfff3, 
    0x231328e7, 0xfdef1d02, 0x111109cd, 0x1dfee407, 
    0xe9f9fbf0, 0xecf10005, 0xf920ca14, 0xdb04dddf, 
    0xf716e701, 0x26f1f917, 0x2103fe00, 0xfb01eaf2, 
    0x010201fa, 0xf20706fe, 0xfd020e00, 0x0603f9f8, 
    0xfaf016f4, 0xff0e1002, 0xfffe01f7, 0x110a03fe, 
    0xf80f06fc, 0x010203ff, 0x0f04fefe, 0x0c02f7ff, 
    0x00fbf80a, 0xfbfff9fb, 0x020202fe, 0x09090407, 
    0x0805fcf7, 0xec0013fe, 0xfc020606, 0x09f7010e, 
    0x0bfe01f8, 0xf2fc01fc, 0x0ef40e03, 0xf9f7f104, 
    0xebf90902, 0x11000106, 0xf4fb03fa, 0xf607fafa, 
    0x16fc05f8, 0x0601f6eb, 0xf5170800, 0x12030410, 
    0x07fcfef9, 0x0df90506, 0x0504f6f8, 0x00090406, 
    0xfc0af5fe, 0xfb1d00fb, 0xf4f91016, 0x10f2fe05, 
    0x0203f507, 0xf307f1ff, 0x0ae42314, 0xfa1828f9, 
    0x0ceb010c, 0x1ae2ff0e, 0xe6fc0ef2, 0xedec07f8, 
    0x1e17faff, 0x04f50eed, 0xff030bf0, 0xfbfd1104, 
    0xe9140705, 0x06ef090e, 0xfde8f80d, 0x12060103, 
    0xf1e608f8, 0x00f6f6f7, 0xe70106f8, 0xf2e7ebf7, 
    0x1005f20b, 0xf0ecfd1b, 0x1c04f0f9, 0x16f71304, 
    0xd9f1fa06, 0xdd12021d, 0xf70915db, 0xfeec170b, 
    0xf4eb15fe, 0xebfcfaf3, 0xf4f00509, 0x03f411f1, 
    0xefe71312, 0x0f0f0dfd, 0x010bfe01, 0xfbe6e5fc, 
    0xee02f511, 0xf6041015, 0x06f7f20b, 0x0efe10f6, 
    0x00fcebdd, 0x0f03fd1b, 0xfffe05e3, 0x0c0118e0, 
    0xfd06dff8, 0xfa09f5e8, 0xff020109, 0xe107ecec, 
    0xdcf1fa0c, 0xffd60810, 0xf12cd805, 0x09f1f7f1, 
    0xf81214fb, 0x07fa13f6, 0xf506e6fd, 0x0705e201, 
    0x00d80305, 0xea051ff5, 0xfb041008, 0xfa050de9, 
    0xf50a031e, 0xf00fe80f, 0xe5090804, 0x08c6df04, 
    0x28dce1ed, 0x140d1cfa, 0xfae308e7, 0x15e5fbc5, 
    0x04020cf6, 0x0305ffe2, 0x06fff400, 0xf403f313, 
    0xfffa04fb, 0x0af6fa08, 0x04f509fb, 0xfef3fe09, 
    0x02fe01fe, 0xfbfff7f2, 0xf2fe0b17, 0xfaee10f1, 
    0xeffa00fd, 0xfc0914f3, 0xfc030304, 0x010ff90c, 
    0x0af90aec, 0xfa020001, 0x08ee1a02, 0x07f7000b, 
    0x10f400ee, 0x0cfbf900, 0xf5f102eb, 0x010dfeef, 
    0xf2f60804, 0xe4ff0303, 0x00020000, 0xe5020000, 
    0xfe01f701, 0xf6e702e8, 0xfe0b1400, 0xf8f90000, 
    0x10f4fafd, 0xfbf3010c, 0xf30af3ff, 0xf806ff03, 
    0x060501f0, 0xfcf40715, 0x0902fff9, 0x05020b04, 
    0xfcfef7f5, 0x07020200, 0x0a0109ff, 0x000502f3, 
    0xf8fa0d00, 0x0d05e402, 0xfa040bfe, 0xf60bfefb, 
    0xfb07020b, 0x0001f503, 0xfb010ef3, 0x0205f609, 
    0xeb0706f8, 0x100a05f2, 0x01f406fb, 0xf20207fd, 
    0x02030500, 0x03fced0a, 0xf613fdf9, 0xfcff09f9, 
    0xf6fd140d, 0x02f80107, 0xf90e03fa, 0xf30cfd02, 
    0x00fb1200, 0x0b030ffb, 0x06040afa, 0x070f05f9, 
    0xfffafc01, 0xfa1407f0, 0x10fffc00, 0x0211fb00, 
    0xf506fc07, 0x0afb0a05, 0x0e030402, 0x04fa14fb, 
    0xfc05f00e, 0x07fa07ec, 0xfee40403, 0x0902120b, 
    0xfa0d04ee, 0x14fce307, 0x0efaf7f9, 0x0e08f003, 
    0x13ffefd5, 0xf809fbef, 0xf20109fe, 0xfddf14fc, 
    0xde050e05, 0xfb01fb09, 0xfd0406e5, 0x0bf809fb, 
    0xeefcdff4, 0x0dfff6d1, 0xdce9eef2, 0xf2f5ef18, 
    0x24ff0703, 0x17f8f1ff, 0xdc0aeffa, 0x04e9fb05, 
    0xf9050703, 0xfbee01f1, 0x0f0616f1, 0x0bfafc11, 
    0xec1dee17, 0xc7e0f320, 0x0d1bff15, 0xe60beb0c, 
    0xd5fffad1, 0x0a0405f5, 0x05dcdcfa, 0xf1e006d5, 
    0xfe0b1bec, 0xe3de12fa, 0xee03deea, 0xf4f60e03, 
    0x04f50a14, 0x0208ff16, 0x00e90ffd, 0x0702f614, 
    0xf7f9060c, 0xfb0af4f7, 0x000608fa, 0x01fc08f4, 
    0x0705fc02, 0x0cfffc1b, 0xfdda1b09, 0x03020cf0, 
    0xf8f4f3fa, 0x140a1bfd, 0x02f8f604, 0xfa210001, 
    0x1ced1801, 0x01fa0808, 0x05eae4fc, 0x0907f4ec, 
    0x0afb1bf3, 0xf10c1b0a, 0x00060301, 0xec17fb13, 
    0xfbfde9f4, 0x22f7ff12, 0x15ffe9f5, 0xfaea0e07, 
    0xf802f4fc, 0xe5222923, 0xed01130e, 0xf9e6ebfa, 
    0x091cecf8, 0xdf0f1526, 0xeffbfb01, 0x01001c0f, 
    0xf3fe0b10, 0x03010206, 0xff09faf9, 0x07fafd0b, 
    0xfb0303fa, 0x0afefc11, 0xf5f1f608, 0x0a0af908, 
    0x09fbf90b, 0xf911fcf4, 0xf80f0b02, 0x3bfff3fa, 
    0xf80bf9f3, 0xf2f8f3fc, 0x160dfb00, 0xfdff0b13, 
    0xf800fc0b, 0x270aff01, 0xf908fef2, 0xee11f8fa, 
    0xf90ffaf0, 0x13110bf9, 0x13fa000c, 0xfe03000f, 
    0xfdf7091f, 0x01f9070a, 0x1117f8fd, 0xf0ec0ce2, 
    0x12120bfb, 0x05fd03f8, 0x1af602f6, 0x1bfee820, 
    0xfaf3ef04, 0xf10ff5f9, 0x0d1bfd12, 0xfc11f6f7, 
    0x110e00f6, 0x1dfd0101, 0x03fce508, 0x0bf21509, 
    0xf4f90ef7, 0x08d725f0, 0x19fec905, 0xf501f917, 
    0xf8fc00db, 0xec13210d, 0xe8e210ea, 0xee06d101, 
    0xd7000426, 0x03ce3b0f, 0xf20aeb2b, 0xf3fde1dd, 
    0x181b19fb, 0x030afde8, 0x182bdfe9, 0x0ad51f03, 
    0xe2fd1cf3, 0xf5dbd5f2, 0xf2efd112, 0xe6f60610, 
    0xf9dd1b27, 0x0216f4ff, 0x071bfd01, 0x0ce1eadb, 
    0x15e6ef20, 0x05e8eedd, 0x1ed80711, 0x20dd0ff2, 
    0xf2241914, 0xd4253af9, 0x06eeef02, 0xde41ef04, 
    0xcd11202d, 0xe7f51efb, 0x030eee24, 0xdb064908, 
    0xfa0712fc, 0xe7fef8fd, 0x06f2ea0c, 0xfb121df3, 
    0xf409e810, 0x071d0005, 0x0a06f4fd, 0x0cfff111, 
    0xcd181ad8, 0xf303fefa, 0x12f9e9e7, 0xef14ffd6, 
    0xf8fe30fe, 0x0efff0f9, 0xe7fbf205, 0x07fafc09, 
    0xfa0a060f, 0xf10ef3f7, 0xfe02eaf9, 0x10fdff06, 
    0x0303eee0, 0xfb11fe30, 0xfc00080c, 0xf400fc05, 
    0x05000315, 0xfe18faf5, 0x040df619, 0xf4ff02f7, 
    0xf90b06f9, 0x040402fe, 0x12e1d41d, 0xf9e6faf6, 
    0xfff9e905, 0x1207effe, 0x07feef15, 0x01fe0900, 
    0x31f2140f, 0x080712fb, 0x07fb0cf3, 0x020b01dc, 
    0xf7ecfa09, 0x1306df10, 0x0e07e411, 0xff0918f8, 
    0xc3120511, 0x02e513fa, 0x0ff8d210, 0xce0b0108, 
    0x03f6fdff, 0x0a02f01f, 0xed19f5dc, 0xf3e92ced, 
    0x02e610f8, 0x110dd714, 0xee1625f4, 0xeff00b09, 
    0x0efef9e8, 0xf2dfef13, 0xcf030e11, 0xfa1516fe, 
    0xff1f04fe, 0x11e00af1, 0x07060ece, 0xfd0c140b, 
    0xcbfdeefb, 0x0ab3c0f2, 0x180811fd, 0x0ffdf603, 
    0xfd333422, 0x14ec08fe, 0xe8f1ff02, 0xf4061efd, 
    0xf6fe20f0, 0xe70b0908, 0xf9f702fe, 0x08020202, 
    0xf60ff527, 0xea01fffa, 0x1916f737, 0x0a1f18e8, 
    0x1f111307, 0xeed004f4, 0x18260602, 0xfee401e7, 
    0x1a090df7, 0xd50a191b, 0xf8f70504, 0x22132ce4, 
    0x12f60211, 0xdb15dbdc, 0x05210705, 0xd520fdec, 
    0xee06f8fe, 0x30110b23, 0xf008bf10, 0xd9daf6cb, 
    0xdce3fbff, 0x26010914, 0x09ececd5, 0x2f0f04f1, 
    0x08e32208, 0x0930f2fc, 0xd7fae4e7, 0xf228d50b, 
    0xcd121706, 0xe60723cf, 0x12fc1304, 0x060d06f1, 
    0x01ca1ccc, 0x11fc18f7, 0x0ae52ced, 0xd8f8ed1d, 
    0x051914fd, 0x060c1013, 0xf507dc2b, 0xd9fcfa0b, 
    0x01100809, 0xe3f9f4e6, 0x100cdc16, 0x17fef3fa, 
    0x0235030b, 0xf3042cf9, 0x22f7effc, 0x01eae109, 
    0x09ec02ee, 0x12faf326, 0xeffb18ef, 0x10df0729, 
    0xf6e2350e, 0x1503d8ef, 0xe1ec0002, 0xec0b11f0, 
    0xf9fce207, 0x0ff1f9ee, 0xfdf50304, 0xe1f9fcfe, 
    0xfa0fdb11, 0x09220213, 0x011213fb, 0x0d17120c, 
    0xcd10ea02, 0xe21bc408, 0xe5d3f025, 0x15f2d90c, 
    0x1fd306f6, 0x12f5d4f8, 0x06fc01f6, 0x07fbe8fa, 
    0xe90c29ea, 0x02fdebfc, 0xf8f4f909, 0xfe1af3fd, 
    0xf4fd0104, 0xfdf1fdef, 0x07000201, 0xf00af2fc, 
    0xef020604, 0xf8fc1311, 0x0bf8f11d, 0x021e0806, 
    0x170004f8, 0x14f2fefb, 0x0109fbfc, 0xff07edfb, 
    0xf70b1c06, 0x1302ef02, 0xf7ff07df, 0xee0c15fc, 
    0xea1706fc, 0xf8eefcee, 0x1be7fa0d, 0x01f50c0d, 
    0xed00f7f5, 0xf3070cf0, 0x0518f810, 0xfafffb0c, 
    0xf70423f8, 0x311010f6, 0xe90af115, 0x0cfd0200, 
    0xf7fbf80c, 0xf40502ef, 0xeefb01f5, 0xf719f82c, 
    0xf010fdf3, 0xf317f302, 0x0804f10a, 0x0301f208, 
    0x081aed02, 0x0dee080d, 0xf4ed1109, 0x0c08100c, 
    0xf8fd0ff2, 0xf4f401f3, 0x030fd6f4, 0xf0031407, 
    0x07f6f9f0, 0xfe09f0e7, 0xfb0106e4, 0xfbf80df3, 
    0x07faf601, 0x05f20bf4, 0x0ffbeb03, 0xf8f802df, 
    0xf1f50cf9, 0x050010f6, 0xfdfde9fb, 0x1811f6d1, 
    0x0f0707e8, 0xf3e9f3ff, 0x04f800fa, 0xde010306, 
    0x110e0414, 0xf102e20f, 0x0e16fd01, 0x04180c06, 
    0xfef1fdfc, 0x03040e12, 0xfbf7ee0f, 0xfb0af90f, 
    0x00fcf812, 0x1eeaf508, 0x030afbf6, 0xfb0d050b, 
    0x0400ef19, 0x0b0e0d0d, 0x0c11f118, 0x1e10ddf5, 
    0xeee607ac, 0x0ee761f0, 0xdd27d1fd, 0xbeb6d718, 
    0x2b1422dd, 0x2ebb5319, 0xfffa17ce, 0x0bcf1eeb, 
    0xc21a05d0, 0xfb292fed, 0xf804f8f3, 0xf01c09d9, 
    0x2e2c17d9, 0xdd08de02, 0x2007dce7, 0xe800fbd7, 
    0xc9d1d703, 0xdcc7d90f, 0xe3fc173f, 0x03ffe8ba, 
    0x0331fcdb, 0xf62ada21, 0xefd6dc15, 0xf021e5e0, 
    0x091718fa, 0xd0fbe037, 0x052702d3, 0xedfccf15, 
    0xcf3af4c9, 0xd5fbd1f6, 0xf913b20f, 0xdcf6dfc9, 
    0x2b20f9f2, 0x15f4e806, 0xf8f2e3f1, 0xf7ffd606, 
    0xfef80011, 0xec1ae916, 0xfb162a04, 0x0609f9f4, 
    0xfdf6000a, 0x131fe0fb, 0xeee6041d, 0xfb1cfefa, 
    0xff1901f8, 0x0313fddc, 0x060affe2, 0xfb1107f7, 
    0xec06e412, 0xf8fb0cf8, 0xf9e2ffde, 0x1012f102, 
    0x05e4fafa, 0xf7f90a01, 0x1a2208e6, 0x07ea0b10, 
    0x0bddf406, 0x09d6fd03, 0xecf802f6, 0x030109fc, 
    0x0e04f4f9, 0xfc0804f2, 0xee101813, 0xfc150301, 
    0x06faee01, 0xf8efede4, 0xfd13091e, 0x1a111102, 
    0x29e7e7e6, 0x1207000c, 0xfb0bf3f1, 0x2608e409, 
    0xfcfc0408, 0x01f904fd, 0x03f704fc, 0xf7f70a10, 
    0xff011001, 0x07f002fb, 0xf606f3fc, 0x0500fb14, 
    0xebf6fa00, 0xe91305f3, 0x040ffc00, 0x020c0207, 
    0xfc0212fb, 0x04ed0201, 0xfbfd0706, 0xf3010b09, 
    0x10000405, 0x050c02fa, 0x060a09f2, 0xea05ebfe, 
    0x010502ec, 0x05f9fc05, 0xfaff0bfd, 0x09ff02fa, 
    0xeffcf8fd, 0x160002fb, 0xeffa00f1, 0xf7fe05f9, 
    0xf20e0cf7, 0xfa0804fe, 0x0200040a, 0xfb12f211, 
    0xf7fff6f6, 0x02fdf809, 0x01fd0cff, 0xe5020607, 
    0x00010306, 0x0213fefd, 0x0607f50a, 0x07050d00, 
    0xfdfffe02, 0x05fc0b01, 0xf8fff6f3, 0xfefefcf0, 
    0x0102fe00, 0x11060407, 0x0207fa00, 0xfe00fb04, 
    0xfafdf8ff, 0x05fe0507, 0xfcf903fd, 0x03f7f9f1, 
    0x01f000f6, 0x01070f02, 0x01fa06ff, 0xfdfdfd0b, 
    0x1308f40d, 0x0403fbfd, 0x06f905ff, 0x01040506, 
    0x04fd0701, 0xff01f3fe, 0x02f5fafe, 0xf2ff0301, 
    0x0006fdf7, 0xfaff0509, 0x04fcfb00, 0x01030b09, 
    0x020b04f9, 0xf907f8fe, 0x1102f200, 0x0010fd08, 
    0xf6fa0603, 0x06040801, 0x03fe0b0e, 0xf9fefcfb, 
    0xf10af804, 0xf90e09fd, 0x0a03f5ff, 0x03fafdff, 
    0xf509fc02, 0xfa040604, 0xff120609, 0x0100fafb, 
    0xfdfafcff, 0x04fc070b, 0x00fc02f9, 0x0e06fd0d, 
    0xfd050dfc, 0xf0fefb08, 0xf7f80208, 0x01fef7f4, 
    0x00000014, 0xfbfa04fc, 0x01f904fe, 0xf3fbf904, 
    0xfc000eff, 0x0004020a, 0x040c0af0, 0x1011f5fd, 
    0xf6f50406, 0xf9f9f6ef, 0x0b0a0eff, 0xf0fff009, 
    0x0102f5f9, 0xfafefdff, 0xf70af4f9, 0x07040103, 
    0xfef8fdf9, 0xfdf808fb, 0xfafc03fa, 0x0310ff06, 
    0x0a0905fc, 0x0009fef6, 0x0809fdff, 0x05fc0208, 
    0xfb01fa07, 0x00ff080a, 0xfb0502f6, 0x050efc0c, 
    0xfff70bf3, 0xfb02000d, 0x04f81113, 0xfffafd13, 
    0xf90a01fa, 0x05080806, 0xf903f707, 0x0aeff7f2, 
    0x0dfcf7fe, 0x0f02f509, 0xf3fd0afa, 0xfc020706, 
    0xf00407f8, 0x0608fefb, 0x020105fb, 0x060e0a00, 
    0x05f20502, 0xfbfbfffd, 0x1202000a, 0x0607000a, 
    0xfffa07f5, 0xf501f8f6, 0xfc02fc07, 0xfb020103, 
    0xf7060201, 0xfcf6fcfb, 0x06060402, 0x01ff01fc, 
    0xff0202fa, 0xf7fb02f8, 0x05f50207, 0xf9f00702, 
    0xf2fc0d14, 0xf605fe0a, 0x06f7fa0e, 0x2a01fd07, 
    0x0d04e4de, 0xf9f0f6f2, 0xe9f715f0, 0x05191aee, 
    0xf11fff05, 0x041203ef, 0xe7070d03, 0x0306e0f6, 
    0x0907fff9, 0x080d03ed, 0xeef301f6, 0x0a1b0604, 
    0x20181007, 0xf93200f6, 0xf007f7d8, 0x0d00f007, 
    0xfb02141e, 0xf1f11e02, 0xeefe17f6, 0x20fbfdff, 
    0xea1cf20c, 0xee0002f1, 0xf10df2fc, 0xf5f2fb11, 
    0xfa052004, 0xef02070a, 0xe7f4e5f7, 0xfffd1504, 
    0x0e1a1b06, 0xeff60902, 0xf3ebfbed, 0x0afaf506, 
    0xff01020b, 0x07fa04fe, 0xfc080200, 0x0b07f803, 
    0x040301f9, 0xfd040600, 0x0808f800, 0x0f030b10, 
    0x000603fe, 0x03f8fef7, 0x0004fb06, 0x060305fc, 
    0x01f90207, 0x0afd0afe, 0xf8060b05, 0xf708f501, 
    0x04fc0dfc, 0x000607ff, 0xfdfcfffb, 0x0006fe01, 
    0xfffa06f3, 0x050b0202, 0x020708fd, 0xf9fffc0a, 
    0xfd05f7f7, 0x090408fd, 0x0105f504, 0x05fbfcff, 
    0xfefa0bfd, 0xfe0efef4, 0xeaf90804, 0x01fbf303, 
    0xf9fb0201, 0x09fefbf9, 0x05040405, 0xf903fcfd, 
    0xfcf501f9, 0xf90204ff, 0x2102ebfc, 0x41fef00b, 
    0xe4f3f5ee, 0xf6f931ff, 0xf7e0fe04, 0x00f8fd1b, 
    0x06f3f703, 0xf1f9f803, 0xf10c01f4, 0x21ebdcf6, 
    0xcd1601eb, 0xf1f4ecf4, 0x050cfd10, 0x02000e0b, 
    0xfaf9fefd, 0x34050819, 0x23fcd7f3, 0xd802e2db, 
    0xdf0a06ee, 0xf6010d17, 0x081f00fc, 0x0a00f0ee, 
    0xe91d0615, 0x0a01f512, 0xf111f9f3, 0xe6e8e2ed, 
    0xfb0724e6, 0x04ed05ec, 0x2a080ad8, 0x2afce138, 
    0xfc16ecf9, 0xfffd2106, 0x2127e343, 0xfdfbedd7, 
    0x15f6ea03, 0x16fbfd10, 0x10f5e0fe, 0x03fd0903, 
    0xf903fafe, 0x02030202, 0xfa09fa08, 0xfe0200f5, 
    0xfb010f02, 0xff02f70e, 0xfd0706f6, 0x06fb0509, 
    0xfd000201, 0x03010a04, 0xfa00f60a, 0x04fdf811, 
    0xfdfb01fe, 0xf41001fc, 0x0303030d, 0x030b020c, 
    0xfff803f9, 0x06f50cfa, 0x050400f9, 0x07fbfa0d, 
    0xfb05000c, 0x0106ee00, 0xfefcf800, 0xffff0403, 
    0x04fe1004, 0x010a0e09, 0x06fcffff, 0xfff8f100, 
    0x06fafffd, 0xeff5fbff, 0xfd030101, 0x0cf1f60a, 
    0xfc040e04, 0xeff70b00, 0x01fbeeed, 0x01070306, 
    0xdefd04fb, 0x0a21ffec, 0x19030ced, 0xe0ef16f8, 
    0xf4e90702, 0xfb11fcfb, 0xeafe051c, 0xecee19f5, 
    0xfeec0ef2, 0x09e9f8fb, 0xfcf810f9, 0xf3f8ff0d, 
    0x1c1e08f5, 0xe1191900, 0x0f06fcf3, 0xfcf41415, 
    0x04eef6f2, 0x0be8ea01, 0xede5fbf8, 0xfbe70a1c, 
    0xf8f30110, 0xf3181e14, 0xedfdf7eb, 0xfb1ffff8, 
    0x130ef011, 0xe1fcf107, 0x08edebe7, 0xf4f62e0c, 
    0x09f1fa22, 0x00fa03f2, 0x05fbf516, 0x01000ced, 
    0xfd07080f, 0x02f7e9fc, 0xd7e4f3f3, 0x1b03ebfe, 
    0xfd02fcfc, 0x08020702, 0x09ff0602, 0xfcebfb03, 
    0xfefef7fd, 0xfd0c0202, 0xf7fe02fe, 0xf2f304fe, 
    0xfd0f020a, 0x10f8eb06, 0xfffd010e, 0x02fafcef, 
    0xf70ffffe, 0x0a03f70c, 0x01faf406, 0xe5f9ff08, 
    0xecf908f6, 0xf7e7ee04, 0xf609ef01, 0xfcedf4f7, 
    0xf0f30b08, 0xfdfbf6fe, 0x0c05f102, 0x00e405f7, 
    0x13fefb04, 0x0506f019, 0xf604ff0e, 0xe2fafbe9, 
    0x07ff0704, 0xfa190615, 0xfff1f305, 0x04fa18ff, 
    0x06f5f6f9, 0x0115030e, 0x11f20506, 0x00f5fcf1, 
    0x0301f705, 0x09f900f1, 0xf5fd080c, 0xfefdfa07, 
    0x010c0205, 0x04f4ff10, 0x01f6faef, 0xf50605fd, 
    0xfb05f800, 0x0402010d, 0x0707ffff, 0x03f1000c, 
    0xfef90109, 0x0210f901, 0x06ef02fd, 0x0502f900, 
    0x0c0402f9, 0x15020aec, 0x00f2090b, 0xe9f70019, 
    0x03f80bf0, 0xf50107f5, 0xece9f7fe, 0x0300080d, 
    0x0d0bfd04, 0xfb08fcf4, 0xf80709f9, 0xfbfced02, 
    0xf3f80206, 0xfbf10af5, 0x0803150d, 0x01f90aff, 
    0x0d0606f6, 0x08f3fef7, 0x0909f4f6, 0xf7fb06f8, 
    0x0411f50e, 0xff06eafb, 0x0aff0608, 0xfeee0805, 
    0x13f6fbfa, 0xffff0003, 0xfcffecfb, 0x07fee804, 
    0xfb0a020a, 0xf7fdf502, 0xf7f90ef9, 0x011106ff, 
    0x05060601, 0xf80c0108, 0x070603f8, 0x0405f608, 
    0xf90203f2, 0x0c0bfd03, 0xfc000dfb, 0xfb04fff1, 
    0x000b0b0b, 0x0bfefc06, 0xf703f4f6, 0xfdff0a01, 
    0xfef7f0fd, 0xfef2fe03, 0x06fc02f7, 0x030500fa, 
    0xfff604f6, 0xfc02fa00, 0x0b0707fc, 0xff19fc06, 
    0xf8f00307, 0x090bf9fd, 0x0dfa0a07, 0x03f00203, 
    0x00f60400, 0x05060dfa, 0xfe0202fe, 0x09030107, 
    0xeffefd05, 0x03fdfbfd, 0xefea05ff, 0xf6fa0010, 
    0xf30716f4, 0x11f30110, 0xfbed08f1, 0x11fdfcf9, 
    0xf40b0de3, 0xf60601f6, 0xf9ee1ff6, 0x01e4f902, 
    0xebf2ee06, 0xe70b0511, 0xfc011bfc, 0xfbf80af3, 
    0xeffce8fc, 0x0505e7dc, 0xe3f9ebfc, 0xf0fee21d, 
    0x19f5fdef, 0xf7fe01fc, 0xe9031006, 0x09fd081b, 
    0xef0203f7, 0xde1df4f3, 0x161103f8, 0xfbf3f4f7, 
    0xef14c60d, 0xe7fd040c, 0xfb0df80d, 0x0e06f519, 
    0xee0a00f1, 0x0f07f8f9, 0x01eafffc, 0x01ee1deb, 
    0xfbed12ed, 0xf1e107fb, 0x0101e2f4, 0xe2f300fb, 
    0x0b0211ff, 0xf3000205, 0x15ec16f6, 0x0cf5f403, 
    0x01050703, 0xfafcffe1, 0xedfb0401, 0xfc0411f2, 
    0x0807fafb, 0xf7fdfa1a, 0xfde01808, 0x1ef30009, 
    0x07ebf604, 0x13f70cf9, 0xfcf800f3, 0xf91800fe, 
    0x0fea0a09, 0x031911fa, 0xf7f4ed06, 0xf0fbeeff, 
    0xffff13fc, 0xf600070a, 0x0b160d00, 0xff0811fe, 
    0x08f8e7fd, 0x06fe0610, 0x12f0e2f7, 0x16f9f70a, 
    0x02f3fc17, 0xfc1c140a, 0xed021804, 0x02fdfb02, 
    0x04f9fa11, 0xee1b1313, 0xfafa0102, 0x0306eb0a, 
    0xeff90c0e, 0xfd0a0bf9, 0x0ffa0c07, 0x18fb08f1, 
    0xef05fff8, 0xfc0c0911, 0x0ff00e00, 0x1efae6f1, 
    0x0dfbf813, 0xf80602ed, 0x091600f2, 0x0814e200, 
    0xfe12fc00, 0xf5010100, 0x06fdfd00, 0xe9f10b0d, 
    0xec02030c, 0x14010720, 0x04fe0de2, 0xf402020d, 
    0xed0bf0f9, 0x0114ede7, 0x07faf0fc, 0x10fc0101, 
    0x0b040515, 0xeaf80205, 0xf6110ae9, 0xecf71008, 
    0x0af9f8e9, 0x051116ee, 0x1b08eef3, 0x12061128, 
    0xfe07e40a, 0xf614ee11, 0x0d04f703, 0x0d04f015, 
    0xf20d0301, 0x0b010e0c, 0x0903ed05, 0x001012e8, 
    0x1c0023dd, 0x08fd43f6, 0x1505dbfb, 0x2006031a, 
    0x0efc18d3, 0xd5f70711, 0xece506f7, 0x03ecd1fb, 
    0xd51508fd, 0x02020010, 0xf300fc0f, 0x1617f8e5, 
    0x01f3010c, 0x13ed16db, 0x0b20d604, 0xe3191efd, 
    0xf80b2ce9, 0x10f909e7, 0x03ecdb21, 0xd5fef005, 
    0xf1d82209, 0x040d0ef8, 0xf8e024df, 0x1700f2cf, 
    0xecfd2414, 0xe20512f9, 0x2dc6e708, 0x1aee31eb, 
    0x351e15fe, 0xf12114f6, 0x01091116, 0x09e8182b, 
    0xe8fb010f, 0xfcef14e9, 0xfaf3e301, 0xde06fd09, 
    0xe5f707f6, 0x06f2f3f5, 0xebffd6f6, 0xf905fe16, 
    0x11f2db08, 0x1c0a0306, 0xecdfddd3, 0x100501f6, 
    0xb709d3ca, 0x073c0f03, 0x0ad10ff8, 0x1fe7001f, 
    0x01030e05, 0xeaebf406, 0xdae1f1f8, 0xf3ed0008, 
    0xe8190f15, 0xeb2224fa, 0x0a1d19e3, 0x1bf10300, 
    0x0d09e907, 0xe8f7e00e, 0x0b0316fa, 0xeede1fda, 
    0xfef7ff03, 0x1e0df402, 0xfb182117, 0x32f6fef4, 
    0x0822f9f7, 0x1118ecf7, 0xebeefa06, 0xf30009f0, 
    0x15cdb4f5, 0x050ff916, 0x1016faf3, 0xaf030bfb, 
    0xfff6fa0f, 0x0a111af9, 0xf3faf5f2, 0x0bff16ec, 
    0xe005e516, 0xf7fb07e8, 0x3306f402, 0xe3df2af1, 
    0xe2fc0011, 0xf1edf811, 0x16fee806, 0xf31e08ec, 
    0x0024efee, 0x05f3f009, 0x072216f2, 0xf1f208ef, 
    0xfaf704e0, 0x06f6e60d, 0xf631fa08, 0x00fcf0fc, 
    0x22e92001, 0xf9f41027, 0xd8f8e901, 0xf3ede2f3, 
    0x02140afc, 0x13c316f6, 0x0b0b1ef1, 0xed0a1900, 
    0xd009fb08, 0x12e9e4e9, 0x101927f2, 0x15e2fa0f, 
    0xf7230222, 0xf4fa05ff, 0x09db1805, 0x0a0801e0, 
    0xfaf3140b, 0xe815c704, 0x0e01e621, 0xf2fb15fa, 
    0xf2f5fb04, 0xec04f509, 0xffeef70f, 0x1602fd08, 
    0x0c0dfbff, 0xd6dc01f1, 0xf8100911, 0xd2e913d8, 
    0x08e316ff, 0xdaef1e0b, 0xf9f2fdf8, 0x090b2af6, 
    0xf3fd0cf9, 0xf300dced, 0x0f10fb00, 0xc203f0db, 
    0xfdecd13c, 0x160004ec, 0xf7e40b03, 0xe6ecfdfc, 
    0xfbfc1018, 0xf6fd0c0a, 0xff1b08d9, 0x1a0cea0a, 
    0x04dc0202, 0x061bd9ef, 0xfb141a05, 0xee0bed22, 
    0xf9f7fa04, 0xde1506dc, 0xe60e07d3, 0xf508fa1a, 
    0x05e801e5, 0xe6081106, 0x0fef0a0b, 0xe602f900, 
    0xf7fbfefe, 0xea00e617, 0xf4fbd550, 0x0fe01105, 
    0xef0100e5, 0xb7f309c3, 0x1911b51a, 0x55eef5e5, 
    0x1745faf5, 0xe70c45f4, 0x3fb9f6ff, 0x04b80cf1, 
    0xeb0005f0, 0x09b8033d, 0x11efef00, 0x1ee5db31, 
    0xe6f431eb, 0x04cde9ed, 0xf8f3eef3, 0xe12ecdf6, 
    0x0c13eeae, 0x552608e6, 0xf9eef302, 0xfee3e5ff, 
    0xdf36dc43, 0xec180645, 0xe707c4fd, 0x4e0e23f4, 
    0xd74013f3, 0xbf10bbfb, 0xb91b161b, 0x25b7ebf9, 
    0x25f2f3ef, 0xe10ec2f5, 0xdeecf0fd, 0xf805b9f8, 
    0x020e55f3, 0x0f00f6d6, 0xfd0d0c05, 0xff03ddea, 
    0xf2f6f604, 0xfdfa17ed, 0x01f8f806, 0xebfee200, 
    0xe8f22a2e, 0xf9f307ec, 0x0ef5eafd, 0xf00e11f2, 
    0x0ffc09ef, 0x00eafefe, 0x06fae7f7, 0xfaff090a, 
    0x0ff20ffc, 0x10e9f601, 0x170c1002, 0xf4180903, 
    0xef0efed1, 0xf3de10fc, 0x15cc1405, 0xeefbeff8, 
    0xfdfbf406, 0xdc0705f4, 0x160ef50b, 0x0e09eef8, 
    0x00f916f0, 0x1cf709f9, 0x0d061f05, 0x132216d3, 
    0x1600f50c, 0xf4e8fcf5, 0xf4f92aee, 0xf616c704, 
    0xea06e3f5, 0x1307e300, 0x09e502fd, 0x01f8fdfc, 
    0x1e1829f1, 0x05eceffd, 0xfdeb0bfa, 0x0aede614, 
    0xfdfcf5ff, 0xe8ed12f2, 0xf9faf70a, 0x19070401, 
    0xfc030efa, 0xe1141315, 0xfcebff26, 0x07e31200, 
    0xed03f4f5, 0x0cfe1400, 0xe9e8fbe9, 0xea09f005, 
    0x0ef6f10b, 0x1015f5f9, 0xf5fbf9fb, 0xeadeeb0c, 
    0xfd03fa0a, 0xeb04290d, 0xf20206f9, 0xf7ea0f0c, 
    0x11dafbf1, 0x0de7e300, 0xe816e412, 0x02f0eb00, 
    0xff1ef313, 0x1c060ef8, 0xf20d0c06, 0xf0f9f4fc, 
    0x210301f4, 0x021d0ffa, 0x171104f5, 0xe3fff804, 
    0xe4ff091c, 0x1bff0cfe, 0xfde5eb15, 0xee07e5e1, 
    0xbae805e0, 0xf3e41a0b, 0x1ce51e01, 0x40d7bcee, 
    0xea0fecf5, 0xe0e7e4e8, 0xd0f40625, 0xe7121905, 
    0x150a02e4, 0xe2f11af1, 0x1400daed, 0x07dbf5fd, 
    0xe6eee817, 0x330bd4fc, 0xe3f719d7, 0x03d31bed, 
    0xde1d1105, 0x03cb1101, 0x420acc20, 0xb9f3d10d, 
    0x04e923f4, 0x00ea19fc, 0x161217e0, 0xe6f815f4, 
    0x22f5e902, 0x07082fe6, 0xd9f7de01, 0x1f04de17, 
    0xc5fbe240, 0xeb1e36c4, 0xfff30f00, 0x30f80019, 
    0x01eec3e9, 0xe6e5321c, 0x1f00e805, 0x0302e80f, 
    0x07fcf6fc, 0xfaffff01, 0x101102fe, 0xf801f5fc, 
    0x0214f70d, 0xf2fc00fb, 0x04100efb, 0x04020b0b, 
    0xf9fbf909, 0x01f11afe, 0x0afb03fb, 0xfc04f305, 
    0x02150312, 0xfeff1f13, 0xf20f0502, 0xffe90000, 
    0xfdfef6ff, 0x05f7fa01, 0x1c0eff06, 0x02080f03, 
    0x02ff0109, 0xf0090d04, 0x06090c0b, 0x01ff02f8, 
    0xfdff0704, 0x1117fc05, 0x0207fd04, 0xecfd06ff, 
    0xfd100b06, 0x00020c0e, 0x030d0a02, 0x08ffec0b, 
    0xf8ff0d0e, 0xfe09f4f0, 0x04000c11, 0xeffb1008, 
    0x07fcef01, 0xfc03ff00, 0xf2fefbf4, 0x09fd01fa, 
    0x01f4fd00, 0xf6070105, 0x0a02fcf2, 0x0afafd09, 
    0xf9fd0608, 0x03f800f6, 0x08fef2fd, 0x04ff0111, 
    0x03fe0b08, 0xff060205, 0x000a080a, 0xf7fa0407, 
    0xf6f802f4, 0x0af7fcf9, 0xf3f90700, 0x0b090702, 
    0xf0f803f6, 0x0405040c, 0xeb02fff0, 0x0cf90309, 
    0x00040900, 0xf1f9f206, 0xfd0af403, 0x0bfc02f9, 
    0xfb07f701, 0x0ffafeeb, 0xfafcfa03, 0x050705fe, 
    0x0711fa03, 0x01fcfffc, 0xf600ffef, 0xf1f901f7, 
    0xf60003fe, 0xfd0301f5, 0xf6fe070b, 0x0bfd0506, 
    0xfdf51202, 0x000801f8, 0x030af1fd, 0xfe0200fe, 
    0xfdfe2111, 0xf610f800, 0xfefdf9fd, 0x0402f3f9, 
    0x010806e7, 0x0a00fafc, 0xfcfcfe09, 0x0009eb03, 
    0x0d0000fe, 0x04fbfe0f, 0x02f8ff0b, 0xfa060908, 
    0xfbf9fbf9, 0x0304fffe, 0x0503f10a, 0x07fc0712, 
    0xfd0ef204, 0x000a0905, 0xfb06f801, 0x0608fafb, 
    0xfa060305, 0x0d07010b, 0xfffe00fc, 0x020f0909, 
    0xfc08f912, 0x0a0204ff, 0xfcf3fc00, 0x020604fd, 
    0x05070502, 0x10fc0001, 0x0401fcf9, 0x04faf710, 
    0xfd04f9ff, 0x050513f9, 0x01fdf1fd, 0xeff50200, 
    0x000b03f3, 0x090d12fc, 0xf5f9040c, 0xffff0205, 
    0xfff0fd00, 0xf5f4020e, 0xf8f6fc08, 0x0901010b, 
    0xf706f405, 0xf0f6f20f, 0xfd080ef0, 0xf0fdf7f5, 
    0x16fbfdf5, 0x02fdf9ff, 0xfa08e9ec, 0xf907fd09, 
    0xfefafc04, 0xf6fbfe09, 0xf909fff5, 0xf9090efd, 
    0xf6f505f9, 0x03f2f802, 0xfc0c0a07, 0x00fbf409, 
    0xf3fafdfc, 0xf2f7fff2, 0x130ff0ec, 0xf917030d, 
    0xffeefeee, 0xf9050e01, 0xf8fd08fa, 0xf403f4f9, 
    0x06070204, 0xf6fef705, 0xfdfa0f07, 0x06fd0202, 
    0x09fffd06, 0x07fd0605, 0x06050dfc, 0x0201fdf3, 
    0xf9fef606, 0x0403fef4, 0x00fbfbff, 0x02030300, 
    0x0809fbf3, 0x03f70606, 0x0900fa01, 0x0308f909, 
    0xfaf80608, 0xfeff0a0b, 0xf413f8fa, 0xf8eeff01, 
    0xf907fff1, 0x030106f1, 0x0904ff09, 0x0bf800fe, 
    0x080200f2, 0xf80402f9, 0xf208fefb, 0x0e08f707, 
    0xfffef806, 0x0a0600f3, 0x0302edfe, 0x0101070d, 
    0xf6ebf402, 0xf00401f7, 0xf3fcfbf9, 0x03fc060a, 
    0x02fcfefc, 0x02fef5f9, 0xeefff6f8, 0xff1ae506, 
    0x03f4fcff, 0x0808f0fd, 0x01f11502, 0xf0fcfbfb, 
    0xfcfb2400, 0x11fffb0f, 0x0d06f509, 0x0aec040f, 
    0xeaf600ed, 0xe8f306fe, 0x09feed08, 0xea001e02, 
    0xe214eef7, 0x0a092b04, 0xf1f1ff06, 0x13eafceb, 
    0xeee6fdec, 0xfcd30d0e, 0xf0fd0e13, 0x04fe18ed, 
    0x03fe08d5, 0xf6fbf6fa, 0xff06f5f7, 0xf009f6fb, 
    0x0ffde703, 0x10021208, 0xf3dffe06, 0xfe0ce6ff, 
    0xf60afafa, 0x0efeffd5, 0x0400f80f, 0x0514f008, 
    0xfde80cf9, 0x10e905fd, 0x02fdf3e1, 0xf2f200ff, 
    0xfafffbf6, 0x0b010c03, 0xf6030007, 0xfaf70900, 
    0x0406fb01, 0x06fcfd07, 0x0607fe00, 0xf5f9fffa, 
    0x010204f4, 0x0403f0f8, 0x04ffff03, 0xf4f1030d, 
    0x04020bf7, 0x00fff500, 0xfc03f2fa, 0x05fa0bef, 
    0xfbfaf306, 0xfa070302, 0x09fcfef9, 0x060cf702, 
    0xf7fb02f7, 0x0303f8fc, 0x08010300, 0xfa0cf0ff, 
    0x05fbf4fd, 0x0207fe00, 0xfcf600f9, 0x02f51201, 
    0x030afcf6, 0x03fafb04, 0x060103ff, 0x0c05fef2, 
    0x05ff09fa, 0x09fff70c, 0x0bf70702, 0x0708f405, 
    0x01fc0202, 0xf8eefe00, 0x16fc00f4, 0x13f002f8, 
    0x04feeffa, 0x04fffd07, 0xf6fc05fe, 0x27f4e600, 
    0xf1f4fe08, 0x0ef61003, 0x11160ddb, 0x10fd08fd, 
    0xfd1dfaff, 0x04fef205, 0xf4edfaf3, 0xea09fcff, 
    0x130af90d, 0x24fb0ff3, 0x1115ef15, 0x041e09e7, 
    0xf005ea11, 0xedff0aea, 0xf204f7fd, 0x0501fe14, 
    0x10fb1602, 0x090ffef5, 0xff12e610, 0xdcf6f0f1, 
    0x060618c7, 0xe5060cf6, 0x04fbede3, 0x2210fb24, 
    0xf9fef2f9, 0x04f8ecf3, 0x0d05e217, 0xf722f6f7, 
    0x01edf9f2, 0x09e60ef9, 0x0dfef702, 0x0104f206, 
    0xf8fd0418, 0xfb060502, 0xfdf5feea, 0x00f503f4, 
    0xf403f908, 0x0607fb01, 0x0501fff7, 0x0af3fef8, 
    0xff05ff09, 0xf80c08fd, 0x09faf6f2, 0x06fe0a08, 
    0x03faf310, 0x0afd0904, 0xfaf905fb, 0xfbff0301, 
    0x06f61003, 0xf0f501fe, 0x0bf603f1, 0x0a1bfbff, 
    0xfc04fafe, 0x040d00fe, 0xfcff050b, 0x03060d0b, 
    0xf4f8f8fc, 0xfa0f0407, 0xf601fa0d, 0xfcfd0def, 
    0xfb050a07, 0x05e8faff, 0xfc0f0206, 0xffeb1112, 
    0xec03fff2, 0xf7f8f2fc, 0xf8fb0b0d, 0x0000fff6, 
    0x220101fd, 0xf6011312, 0xf1f2fe02, 0xe50606ec, 
    0xf514fce1, 0x0604fcfc, 0x0809f81f, 0x0b18e6e1, 
    0x07f4fc0b, 0x060eee03, 0xf30ef922, 0x09fefddf, 
    0xeaf9ffed, 0x29f7d705, 0x10fcf5f1, 0x08f603e4, 
    0x09270203, 0xfafafefb, 0xebf3fe0f, 0xece424fa, 
    0xf6f6ec10, 0x1ff705fe, 0x0101f520, 0xf4fceaf7, 
    0x0006f3f9, 0x040714f3, 0x0404050f, 0xf4e4de0f, 
    0x0afc0eec, 0xe615141c, 0x13f008eb, 0x01f5fc08, 
    0xe7e01bda, 0xf9f91cea, 0x10effc08, 0x12fb0b02, 
    0xf0f3e306, 0xf6020201, 0x060bfef9, 0x0afa100e, 
    0xf10106f0, 0x0c0001f4, 0x0a07f7fe, 0x08f40704, 
    0x020cf508, 0xfa000d0e, 0x01f20d18, 0xf108f7f4, 
    0x0124fbf4, 0x040bfffc, 0x0b0af8fc, 0xf1120413, 
    0x1fedf9fd, 0x03f8eb06, 0x07f8f202, 0xfc071beb, 
    0xfdf5f9e4, 0x06ef1c02, 0xfb08f600, 0x05f004f4, 
    0xfefbefff, 0xfdfc0afd, 0x0512fcfd, 0xf500f8ff, 
    0xe802f801, 0x0900000d, 0xf70016f5, 0x0203eeef, 
    0x00fd01f9, 0xef0f0509, 0x02e51008, 0xfb02fcf8, 
    0x0b020ce9, 0xf90c06f4, 0xfe07f807, 0xf5070f0b, 
    0x040efefe, 0x0203060c, 0x01fefb04, 0x05fffcf7, 
    0xf903f305, 0x0e021006, 0xfcf9fe02, 0x02fb14fc, 
    0xfa05010a, 0x020403f7, 0x080406ff, 0x04f8f005, 
    0xf7f3ff08, 0x14fefa08, 0x05f90010, 0x0102fdfa, 
    0xfd07f9f6, 0x1002f4fb, 0x0606010b, 0xf5090e05, 
    0x0e02f308, 0xfb040900, 0x07fbfdfd, 0xf602010c, 
    0x0301f901, 0x06f5f4fc, 0xf3fa0a09, 0x07f20505, 
    0x0cfc0406, 0x00010908, 0xf5f8f513, 0xfcfb0e06, 
    0x010ffd09, 0xfcfffaf9, 0x01fbfbf7, 0x02f90c02, 
    0x0afeef06, 0x07fa08f3, 0xf501fafe, 0xfaf1ffff, 
    0xfcf0f6fa, 0xf6fbfd00, 0x0809f906, 0xfff90002, 
    0xfff2ff04, 0x05f2f7e9, 0xf8fdfffe, 0xfefcf8fb, 
    0xeffcf4fc, 0xff0606fb, 0xf705f10a, 0x01f7ff04, 
    0xfb00fb01, 0xf7f6040d, 0xf80309f2, 0x0201f9fd, 
    0xeb11f6fc, 0x03fcfd05, 0x06eef207, 0x04fc1d01, 
    0x05ff0cfb, 0x01fef407, 0xfbfe05fe, 0xf6fb00fa, 
    0x080703ee, 0xfe00fbff, 0xf4fe02fe, 0x05fcfdf9, 
    0x0307f2fe, 0xfd0104f8, 0xf4f2fb0a, 0x05fcf8fd, 
    0xfd02fcfd, 0xf9f31002, 0x0afa01f6, 0x06fdfd10, 
    0x04fdfc00, 0x030efd1c, 0x0a05fd0e, 0x1def1b08, 
    0xfef61f00, 0xf90a0c0d, 0xeffce8e3, 0x05e308f7, 
    0xdefced19, 0x01f4002f, 0x18f60bfe, 0x0b1a151a, 
    0xfbecf502, 0xe7050b05, 0xf9f70f08, 0x07fb091e, 
    0x18f304fb, 0xfff609ff, 0xf9f806ee, 0x16f1f1f8, 
    0xfa0408e6, 0xfc04f2f9, 0x0cfcefe7, 0x02020313, 
    0x0b15f600, 0xf20903f1, 0x25fb09f5, 0xedfd03f4, 
    0xfbfd02ff, 0x090c0e06, 0x08130006, 0xf6f505f4, 
    0xfcfc08f9, 0xf5fa0c01, 0xec0f060f, 0x090606fd, 
    0xfe04f7fa, 0x07030904, 0xea090cfd, 0x110106f6, 
    0x040809eb, 0xf3eb00f2, 0xfe050705, 0x08fcf704, 
    0x0bf40408, 0xf702ff15, 0x05090d00, 0x030005fe, 
    0xf4fcef05, 0x02080209, 0x1810fe01, 0xfbfc0809, 
    0xec01fff6, 0x0ff00ffe, 0xfae9fc10, 0x06fbf5ff, 
    0xf809ee09, 0x07f300f8, 0x05fcf203, 0x0ef61216, 
    0x0110fbfd, 0x00ea01fa, 0x09efe70a, 0xfa060016, 
    0xe7eeeffe, 0x0aef12fa, 0xf6eef412, 0xf40ef524, 
    0x0e110722, 0x030718fb, 0x0701ea03, 0xf3ef050b, 
    0xfff9ff1b, 0xfc07fbfe, 0xfa05eeff, 0x100706f2, 
    0xf2f101ef, 0x0bf404ff, 0xe803f700, 0x00f7e8f3, 
    0xf80dfaf6, 0x06fcfa11, 0x0413faf3, 0x13fcfce4, 
    0x041604ea, 0xee090a0b, 0xeef501f9, 0xea0b0709, 
    0x010b1ffb, 0x080b0004, 0x08f9f5fc, 0xf8010301, 
    0xf1feefeb, 0x0405f7f5, 0x0404fd07, 0x0b01fcf2, 
    0x0e010ef8, 0xf20708fa, 0xf615fc0a, 0xef030902, 
    0x21fe0cf6, 0xff031702, 0x0ef2e6f9, 0x0d0cee05, 
    0xe8fbfdf2, 0xf701f0fb, 0xfb13f210, 0xf000e6f5, 
    0xf4fff403, 0x00fb0808, 0x08070002, 0xf609f724, 
    0x07000d13, 0xfa0606f8, 0x20f80201, 0xfc0700fb, 
    0xdffe0417, 0xfceef904, 0x1f0b2716, 0xfd000b07, 
    0x01e3fa31, 0xf9f5f902, 0x39f7e50a, 0xf9f6020b, 
    0x21101101, 0x01f3e01e, 0xf62a1e31, 0x07e8f613, 
    0xfbf6f60a, 0x0e011307, 0xff06e9f9, 0x01060d07, 
    0xfef90b10, 0x091a1cfc, 0x0c0ae001, 0xeef5ee16, 
    0x00110bf7, 0x13e10200, 0xee0409f4, 0xf10aed24, 
    0x0712060e, 0x02f1f434, 0xebf8f907, 0xf40aeff0, 
    0xfcefff04, 0xfd07f208, 0xfef7fbfe, 0x0dfcf103, 
    0x03edfced, 0xf1f326fc, 0x1709f80f, 0xd6ee09e7, 
    0xeffa1002, 0x1304f6fd, 0x2a08d4de, 0xf8f0df07, 
    0xf2ecf7f9, 0xf7080409, 0xf905de10, 0x1c0effde, 
    0xd30113fb, 0x1d0bdbf0, 0x08ef00f7, 0xf20febf0, 
    0x1801ef1a, 0xfaed10dc, 0x05f5f804, 0xd20df1cb, 
    0xd923fffd, 0x1121040f, 0x09fee8f8, 0x07fde33f, 
    0xe8e40dec, 0xf4010cdb, 0xbe1bf3d8, 0xdefbf810, 
    0xf105e5e9, 0x1014ec20, 0xf4071d00, 0xecf6de27, 
    0xf710ec29, 0x13fe1def, 0x0af60535, 0xfd0a0101, 
    0x0b2d08fa, 0xfaf1e601, 0xf807f417, 0xfe000a05, 
    0xf8f005ff, 0x01fc01f7, 0xf60305f6, 0xe906f3fa, 
    0xf603f505, 0xf40afe03, 0xf7f2f9fc, 0x02eafd0e, 
    0x08fa14fc, 0x14fa06fa, 0xf7f10301, 0x05f5f9f1, 
    0x090af906, 0x030d14fe, 0xf2e7130a, 0xfaf204fd, 
    0xfff6f204, 0x0811def8, 0xfefa00ee, 0xeefd0906, 
    0xfd11fcff, 0xed05fd05, 0xf4f2f009, 0x02f1050a, 
    0x0d03fbfe, 0x11f31103, 0xe6f1fd04, 0xf516fffb, 
    0xf2180204, 0xfb05eeff, 0xfefeea01, 0xde110d08, 
    0xeafcf2fb, 0xf9fe020a, 0x0afc0502, 0xde051700, 
    0x2037e00f, 0x04ef2de2, 0x0db7070f, 0xe4c215f8, 
    0xe62405fd, 0xe52007db, 0x0801111f, 0xfdf90417, 
    0xf9f30cce, 0xeaea180e, 0x0ade002f, 0x0841010f, 
    0xeb160eee, 0xec13e910, 0xfb064bfb, 0xf6e2e6ef, 
    0x38dee8c8, 0xf6dc09f9, 0x0ff5d1cf, 0xe324fff3, 
    0x120520e8, 0xfafe0cb5, 0x2612e800, 0xf00a0ef5, 
    0xd0f0fd3c, 0xe904d5e7, 0xe11717f6, 0x01e5ea20, 
    0xfaf7c1d9, 0xd90a120a, 0x113addda, 0x2766cf3d, 
    0x0cda2ce3, 0xe0da0c11, 0x18ee0cfd, 0xe21feffd, 
    0x04020802, 0x27054805, 0xe7f91ae4, 0xffe316dd, 
    0x07dae225, 0xf5f8df17, 0x0a11d9d7, 0xd7ca01e8, 
    0xee0b0725, 0xfb1ffbe1, 0xe64301e7, 0xfee6e227, 
    0xe4f717c9, 0xd60bf2dc, 0xdfda3bed, 0xddccf7e2, 
    0x1a20c8e5, 0x12b70718, 0xe723f7fd, 0xfa08e6d3, 
    0xe317e2f7, 0xefe611e7, 0xf2270ef2, 0xbd011701, 
    0xd6deedf3, 0x37c700d1, 0x230314f5, 0xce31ebe5, 
    0x32c0d4c1, 0x37110f03, 0xfdd6ee0f, 0xe52df8cd, 
    0x26e7f7e8, 0x27dff3e0, 0x0f14eee4, 0x14fe22cc, 
    0xd81510ff, 0xee02e5e0, 0xf7080f0a, 0xfef603fb, 
    0xfe03030d, 0xff030b0c, 0x18f9ff05, 0x0009fe0a, 
    0x15fefaf7, 0xfaf0fe09, 0x0215fffd, 0x1215feee, 
    0x0911f8e8, 0xf60ffd0f, 0xfefc08fe, 0x04ec0701, 
    0xf2fc1511, 0x08fdf50b, 0x1103f609, 0xf41b05f9, 
    0x0513f710, 0x0112010d, 0x0a080ef9, 0xfa02f306, 
    0xf6010412, 0x02000202, 0x03050405, 0x070ee901, 
    0xfbf4eef1, 0xf60606e8, 0x0316f710, 0x0b0407f9, 
    0x130f020a, 0xfef2fff1, 0x03eae500, 0xfb03f801, 
    0x0913fc0d, 0x0afffef5, 0x16e50afa, 0x01f907fa, 
    0x1b260cf2, 0xf805fbfb, 0x03ea0cf2, 0x00f80b14, 
    0x0411edfe, 0xe60805da, 0x07da06f5, 0xf5ee00ea, 
    0x0924eedf, 0x051e1422, 0xfe00171b, 0xf5f61523, 
    0xeb051101, 0x1aeef1ef, 0xfe010ad3, 0x1905fcf3, 
    0x1f0611ea, 0x000af6f7, 0x1415ef18, 0xf505f51d, 
    0xf40bfbdc, 0x0a2d2207, 0x27fef808, 0xfc24f6ec, 
    0x04fd18fc, 0x0dc9060d, 0xfb04f3f4, 0x14cd3d1e, 
    0x0ff3230f, 0xf5fa05f9, 0xeb162fef, 0xe6ed03e4, 
    0xf74710de, 0xd913fa1a, 0xfbf6171c, 0xc5f1ddfe, 
    0xf505f8f4, 0xd50d05e6, 0x2424fe15, 0x24e50f08, 
    0xe5d716e4, 0xdd0f18ec, 0x2bbf1ff7, 0xfaf7d02c, 
    0x44f030e0, 0x12c9e0e1, 0x131f02e8, 0x3cd5f329, 
    0x39e6f0f9, 0x07ef43b1, 0x1d19fd14, 0xdceedaba, 
    0x0cef05f9, 0x2613f82a, 0x29072ae1, 0x162218be, 
    0xc7e74a0d, 0x05cb2104, 0xf5171318, 0xf2f4b0fe, 
    0x05fb28f2, 0x1316cb06, 0xeb3616c2, 0x03051ad5, 
    0x150c05ff, 0x01e346d6, 0xf92f2ee0, 0x2d0a33df, 
    0xeafaf72f, 0x050e3fa6, 0x1d1d1200, 0xf706fa09, 
    0x1101c1fd, 0x1b24df0e, 0xdd0817f6, 0x0b0b2710, 
    0x16f709ea, 0x0df212ff, 0x09f0e603, 0xecf9fc00, 
    0xe0f8fcec, 0x00fa1a09, 0x0cf5ef06, 0xf1f3f5fa, 
    0xee00fc0b, 0x04def81b, 0xed000bff, 0xf2efe704, 
    0x070025e7, 0x0ef1ffe7, 0xf813f4fb, 0xfbd50c08, 
    0xfc1606ef, 0xefe4efe6, 0xf6eae009, 0xfa110500, 
    0x02001815, 0xf80d0df4, 0x14071107, 0x19fceae2, 
    0x13f3f30b, 0xfe0ae9fe, 0x03fbe2ff, 0xebe4edff, 
    0x0e080efc, 0xda0b1300, 0x0b010200, 0x07f8e207, 
    0xfe2304f1, 0xfc0505ee, 0x0b0dfd0f, 0xe1ff13f6, 
    0x04f904fc, 0xfa0d0c0a, 0xf5f90bff, 0x00070208, 
    0x050405fa, 0xfdf605fc, 0xf3020804, 0x17fbf70d, 
    0xf6f503f2, 0x03feff02, 0x00f9ff07, 0x0cfefe09, 
    0x01060af4, 0x090a0706, 0xfef4f0ee, 0x000006ea, 
    0x06f3fd0e, 0xfe02fe00, 0x02010cf7, 0xf7fb07f8, 
    0xfbebfffc, 0xff03f8fb, 0xfaff0b03, 0xf9000af2, 
    0x0603f3fa, 0xf903fdf8, 0xf6fbff0b, 0x00fcf0fc, 
    0x02ff0602, 0x02fffb0b, 0x010c08fc, 0x04f5fcfc, 
    0xf8fb0bff, 0x0bfa0ff0, 0xfafe07fd, 0xf8f2fffb, 
    0x0511fafe, 0xf5040c06, 0xf8fa05f5, 0x05fa0a00, 
    0x0810f808, 0xfefdfe00, 0xfffb0401, 0x01fdfdfb, 
    0xfbfe0309, 0x00f105fd, 0x0405ff07, 0xfe0502f7, 
    0x050a08f8, 0xff0200f5, 0xf30d08fb, 0x050a0e03, 
    0xfafc0b03, 0xfafef9fd, 0xfc05f9f4, 0xfc0500fc, 
    0x000201f7, 0xfcf9f7f4, 0x02030cff, 0xfbec10ff, 
    0xecfa04fd, 0x01fe0207, 0xfe020ef5, 0xfa00f50d, 
    0xfd16fb03, 0x010af804, 0xfc0d0204, 0x06fff901, 
    0x0df10704, 0x03f8fd00, 0xfaf700f5, 0x02ff02f4, 
    0x07fb00fc, 0xeef7fef7, 0x010afd0f, 0xf3ef03fc, 
    0x080c0000, 0x0f0812fd, 0x13f80308, 0x0af101fa, 
    0x020f070b, 0xf3080dfb, 0xf4f9050d, 0x09fff902, 
    0xfbfbfefd, 0xf7f00510, 0x0af5021d, 0x0b0aeb11, 
    0xf1080eff, 0xfe00f610, 0xfaf9171a, 0xebf600e1, 
    0xfefdf308, 0x10f2f9f6, 0x15010613, 0xfc0efd02, 
    0xfefe07f5, 0xf4fc0af1, 0x0803f6fe, 0x15faf8fc, 
    0xf4ec0113, 0x0df9f300, 0xf2070512, 0x05faf61c, 
    0xff08f906, 0xefed0ae5, 0x020007fe, 0x070a0020, 
    0xf8f509e3, 0xf9e90ff5, 0x04f9f2fb, 0xf5080800, 
    0xf2050205, 0xfa01f503, 0x010d01f9, 0xf504fb09, 
    0x0500f304, 0xf8fdfe02, 0x04fe00f4, 0x0315f800, 
    0xf7020df5, 0xf40bf5fe, 0x01fdff04, 0x00ff050e, 
    0xf7fe06fc, 0xf80307ff, 0x060306f0, 0x010bfe01, 
    0x080b0100, 0xfb13040a, 0xf4f2fd02, 0x0afdfe01, 
    0xf90300f8, 0xf6fd0a04, 0xff09f6f7, 0xf50104fe, 
    0xf208f805, 0xfeff0008, 0x08fdfbfc, 0xfd06fc08, 
    0xf90702fd, 0xf3ecf80a, 0x0cf2f91a, 0x0001f6fe, 
    0x0b030209, 0xfd03f5f9, 0xfb090200, 0xf6fbeefc, 
    0xfb00fdf8, 0xfefbf4f8, 0xe0fe0407, 0x09ebf3ff, 
    0x071609fc, 0xf8eaf0f9, 0xf9fef91d, 0x1af5100a, 
    0xea1c3a25, 0xfdeced0c, 0xf00d03fb, 0x13d9f607, 
    0x01f5ee0f, 0xe9edfe07, 0x06f7ee0c, 0x01fb0c0f, 
    0x0df7d5f5, 0xe904fc1f, 0x10f3060b, 0x09fadf08, 
    0xf0d5ecd8, 0xeff2ff15, 0xf9040c0e, 0x120900f3, 
    0xfa000a18, 0xf70cd5f0, 0x12eff511, 0x07fb1aef, 
    0x2ddf0919, 0xcff0e928, 0x15e50bfc, 0x06e6001b, 
    0x0901f2ea, 0x2bff0506, 0x132b2107, 0x0deffee0, 
    0xfdd9fbec, 0x0305f906, 0x070e1a07, 0xf9f9eefe, 
    0xfefcfe02, 0xfc02fdff, 0x0404060a, 0xfcf40902, 
    0xfb01f807, 0xfa03fa03, 0xfc010a05, 0x040605f9, 
    0xfcfd0406, 0x03010304, 0xfcfe0601, 0x04fcfd00, 
    0xfdfc00fd, 0xfdfc03ff, 0x09fffef8, 0x02070202, 
    0x03eff6f4, 0xffed0105, 0xf2fc0000, 0xfff80903, 
    0x0108ff02, 0x010afdfe, 0x000709fd, 0xfe05f501, 
    0x0306f7f4, 0x05f8000d, 0xf8fdffff, 0xf7fff103, 
    0x03f811fb, 0x03f7fdfe, 0x050000fd, 0x0903fcfa, 
    0x0003fc02, 0xfcfaff07, 0x04060fff, 0xff0902f9, 
    0xfcf60108, 0xeefe0402, 0x0e03dbed, 0xe0feee1a, 
    0xf60317dd, 0x020af6eb, 0x10ea11fa, 0xfe03fd14, 
    0x07e3f5f0, 0xe01b05c4, 0x14230a00, 0x00f9e9f3, 
    0xe90afc13, 0x1df60cf1, 0xf4f0fb1a, 0x0ae1f9fa, 
    0xf403dadf, 0x090210fe, 0xe612faff, 0xfa2b07e7, 
    0xf40c2c14, 0x19e8f015, 0xf1f9f61a, 0xfffeebf3, 
    0xeff719ea, 0x161c0806, 0x01fef6e7, 0x1e01f008, 
    0x1e0cfcf7, 0x2c0b14fd, 0xfc151afa, 0x0f160006, 
    0x18df0901, 0x0fe1f5ea, 0xfe16d323, 0x0716e0e6, 
    0xd9fae903, 0x0e07fa01, 0xf0ed02fd, 0xfd08e604, 
    0x2106fb03, 0xf6080209, 0x05fa0ce2, 0xfffeedf9, 
    0x0b04fe0e, 0x02ff00f3, 0x05060304, 0x07050aef, 
    0x0a0804ff, 0xff12f002, 0x01030005, 0x08ff1017, 
    0xe7f5fa1c, 0x09f10b11, 0x0209160d, 0xef01f2f2, 
    0x10fcfffb, 0x01f30ee9, 0x06f50904, 0x1202f40c, 
    0x07fcfbf8, 0x0105fe01, 0x00f6030b, 0xf7ff0403, 
    0xff0bf5fc, 0x01f5050f, 0xf720f30f, 0xeb0afe0a, 
    0x07010af3, 0x04ee0009, 0x081a061d, 0x08f30a20, 
    0x0dfe04f6, 0x0a02fc00, 0xfaf6fee8, 0x0406ff00, 
    0xf40cf4fd, 0xf8fefde7, 0xe8efe910, 0xeff8f6f1, 
    0xfc0bf9ee, 0x01ff0202, 0xf71f0e02, 0x07ff02e5, 
    0x200202fe, 0xf706fe07, 0xf4fcf4fe, 0xe5e90001, 
    0x04f4f6f9, 0x18f6f20b, 0x10eceffe, 0xf1f3fcd4, 
    0xfa03f814, 0xe6000504, 0xdcf4f8fd, 0x10ee230f, 
    0xed01f912, 0x000fffea, 0xfe00e705, 0xe901e9f6, 
    0xf9eefaf0, 0xfc01eefc, 0x16f0e10c, 0xf3f2fd17, 
    0x1af208f5, 0xf6121d1a, 0xfff00dfb, 0x36eefd18, 
    0x00d814f7, 0xed09eb09, 0x080500f1, 0x0ce9effe, 
    0xedf6d0fb, 0xf9fd0c05, 0xe303f0f5, 0x24e3fc1b, 
    0xfd0c0410, 0xf20617f7, 0x0909fbea, 0xecde1105, 
    0xfa13fa13, 0xfb1d1d10, 0x10f5f703, 0x05fcf0ed, 
    0xfa2feef1, 0x1415fef4, 0xeefdfc08, 0xe8f8ce16, 
    0x07f3fd0b, 0xeff603fa, 0xe71cdc09, 0x13fd12ed, 
    0xfff010ed, 0x13050f03, 0x1ff7f121, 0x18f2eb06, 
    0x06f7f801, 0xfd000f09, 0xe704f900, 0xdc18e7ff, 
    0xeb150312, 0xec14f11d, 0xea0c09fb, 0x0fee03ec, 
    0x060aecdd, 0xeb2e0e2b, 0x1dfc003d, 0x11fd02ed, 
    0x100afaf7, 0xf6f8f4ef, 0x12fde61f, 0xef08fa14, 
    0x0707fefe, 0xfb07fefe, 0xfcfefb06, 0x09050f13, 
    0x07fffafe, 0x04fc110a, 0x010a030b, 0xec0d02f0, 
    0xfdfe03fd, 0x0bfd10f7, 0xecf6fbf5, 0xee0a07f9, 
    0x0607feff, 0x10fa090d, 0x13fdfe01, 0xff060a0f, 
    0x08040102, 0xfef9faf9, 0x02f703ee, 0x04f50806, 
    0xf5fb0207, 0x00fefd02, 0xfe0605f4, 0x08130316, 
    0xf80300fd, 0x00ef02f4, 0x08fa15f8, 0xfd031100, 
    0xf20409fc, 0xfe00f012, 0xf30803f5, 0xfceb11f7, 
    0xf80dfa0e, 0xfcfe04f6, 0x0801f903, 0x02f2120b, 
    0x01010e00, 0x0d0a0c06, 0xfef90601, 0xf6fa03fc, 
    0x0efdfffe, 0xf7fef6f6, 0x01f80006, 0x0301f600, 
    0xfe03fc06, 0xf80111ea, 0x0b04f6fe, 0x00fa0901, 
    0x02f9f300, 0x13090002, 0xf2050701, 0x0702f501, 
    0xf7190004, 0xfe09fb02, 0x08f90700, 0x0c0805ef, 
    0xf20500f6, 0x03f1fefe, 0xfff20403, 0xfefc08fe, 
    0xf802010f, 0xf5040202, 0x0304fefe, 0xf60e05fc, 
    0x0a0bf504, 0x030a0701, 0xe605fa03, 0xfef303fd, 
    0x000b0307, 0xf502050e, 0xf8f50802, 0xfd06fa01, 
    0xf90f01fe, 0x03fcf30b, 0x01fd0a07, 0x06030a0e, 
    0xff0cf70a, 0x030afc1b, 0x0c0800f8, 0x17031601, 
    0xf9ee0cf7, 0x0312050b, 0xf4f4f5f7, 0xfeef0601, 
    0xdcec040b, 0x0af50121, 0x13eb01ec, 0x00060f0f, 
    0x06f7f2f4, 0x090d02f8, 0xf30108ea, 0x0ffbef36, 
    0x14ff0af1, 0x01060f0f, 0xf7f806fe, 0x08f9f5f2, 
    0x110204f2, 0xf3f2f7f7, 0x1cf2f4e3, 0x14f3131b, 
    0x1b12d41e, 0xf703100d, 0x0815e406, 0xe4140202, 
    0xfd0108e8, 0xfe0f0005, 0x06150114, 0xe5ec13f3, 
    0x17fd26fb, 0xeef21e03, 0xe622eef4, 0xf70a1100, 
    0xf7eff204, 0xef14100d, 0xf2f501fc, 0x010612ff, 
    0xf70307ed, 0xfa01f5ff, 0x03fbfbec, 0xf708fc04, 
    0x05100303, 0x0cf3f5ff, 0xffe31d06, 0xf2080d18, 
    0x06eefc0f, 0x170409f5, 0x0d01f2fc, 0x0b141af6, 
    0x061b080b, 0x08f9fc09, 0xfa00fc15, 0x0b0dfefc, 
    0x00f9fbf1, 0x0f12f506, 0x121300ff, 0x1119fd0a, 
    0xec01f800, 0xef041012, 0x15f7e705, 0x0b002803, 
    0xe7f1f907, 0xf91e1dfb, 0xf2fe140a, 0x01fde913, 
    0xf80edfef, 0xf40e0524, 0xfdf1fc12, 0x0efff3fa, 
    0x0a0111fa, 0x09f9fe03, 0x0500f8f9, 0x0a0a02f3, 
    0x0d020605, 0x05010901, 0xf3f3f104, 0x0100fff5, 
    0x08ff1100, 0x050df902, 0xfaf3fd05, 0xfdef08f3, 
    0xff00fb0c, 0xfd04f1ef, 0x02021402, 0x040df102, 
    0xfd0901fb, 0xff10f905, 0x10010e0c, 0x08fdfef9, 
    0x04fefff9, 0xfef209ef, 0xfbfa0906, 0x0cfefcf7, 
    0xeafb0cfc, 0xf01020fe, 0x14fd0000, 0x06fbeb08, 
    0xf80400ec, 0x070aeb11, 0xee08f7e6, 0x001000fd, 
    0xe71401e8, 0x060e01f9, 0xf909f305, 0xff09fb02, 
    0x06ec07ff, 0xf5fbfefb, 0x0502fb03, 0xf70002fd, 
    0xf4e601fd, 0xfff6f3fb, 0x09f00213, 0xf20708f7, 
    0x1327ddff, 0xf9f6e5f3, 0x02e80c16, 0x04faedf3, 
    0xfa0bed12, 0xfae7190a, 0x00e8f507, 0x0110f7f8, 
    0x19f2fff4, 0xf6f811f2, 0x091e20f6, 0x1304020f, 
    0xfaf80f04, 0xfe16e008, 0x0515d3de, 0xf50f12d3, 
    0xe5e11ee4, 0x09f812fc, 0xf614f214, 0x08ef2507, 
    0x0d0a051d, 0xf911080a, 0x0ef11609, 0x11e9fb09, 
    0xddff1530, 0xf1e9121f, 0x1bd2eff5, 0xf80202f5, 
    0xeb090a00, 0xfcffeb03, 0xfd172714, 0x00fe1503, 
    0x15ff11ff, 0xebf927fc, 0xe50cff2c, 0xfcfe07fb, 
    0xf40df605, 0xe8edf0fa, 0x1b0ff306, 0xfd01f004, 
    0xfe0003f3, 0x02290316, 0x0308f105, 0x22ebffe3, 
    0xeefa01f9, 0x1f00e307, 0xfaf616e4, 0xfcfaeef3, 
    0xf4f003fb, 0xfd1423ee, 0x08fffa10, 0xe8ea00e3, 
    0xfdf2faea, 0x150e111e, 0x12feea12, 0xfa10e520, 
    0x0512fdfd, 0xf90407e0, 0xe81a10eb, 0x0e03faf5, 
    0xdf01f4fb, 0xe40cff16, 0x0bfe02e1, 0xcfe6f60c, 
    0xf60209ee, 0x070004f2, 0xfaf20f21, 0x070c0405, 
    0xfe0dee02, 0xf9fcf501, 0x06ebf01b, 0xf4f5070a, 
    0x02e715ed, 0x0704d4f8, 0xeafc01f2, 0xf1f2f310, 
    0xf8f01df4, 0x0a1905d5, 0xf00a1df3, 0x02eaf816, 
    0x02bc2fff, 0xfd1a0cfc, 0x01cce70c, 0x1904fff5, 
    0x2408e408, 0x082508f8, 0x00ce17f8, 0xf60803f1, 
    0xf3cfe0f9, 0xfa11d3ff, 0x06efef14, 0xecfbfb1f, 
    0xf8440701, 0xf715f20a, 0xebf4d805, 0xf5d6e80f, 
    0x2809e6fc, 0x27f8f6f0, 0xf205f1e5, 0x012e36f0, 
    0xd90907f6, 0xf403f5f2, 0xf01ad803, 0xda341b1f, 
    0xe0ffeff2, 0x22f41407, 0xdefe25f1, 0xe3290afa, 
    0x1400f501, 0x230b0ee4, 0xfdd0e7f7, 0xf3f8d51b, 
    0x21180b01, 0xfb0ee5e5, 0xf0f8ff1c, 0x01e8f10b, 
    0x01fdf900, 0xee07f20c, 0x0cdcfb29, 0xed11e230, 
    0xca010cf4, 0xfeffe737, 0xeedf3533, 0x00f2fb0c, 
    0x18d51ccb, 0x10cef4ef, 0x100e0dda, 0xd530f9ee, 
    0x0c080cee, 0xd5fb2af3, 0x130ce316, 0xdff6fa16, 
    0xea18f208, 0x0b08f0e2, 0xdefd0a08, 0xfbe71801, 
    0x13c5dd10, 0x02b9280a, 0x2223ff25, 0x072ff33d, 
    0x01ff0ffc, 0x0bce0a0f, 0x03def10c, 0x08053500, 
    0xfd0d0c03, 0xf0e02cff, 0xf405fef9, 0xee0115e0, 
    0xf2edf4ce, 0xd4fc06ec, 0xf9f8f514, 0xf9e1020a, 
    0xe223fb0e, 0xe6f21408, 0x06fb030a, 0xfbfee50a, 
    0xfa22fe04, 0xeb05e8f9, 0x07fbfcdd, 0x03fe1e00, 
    0x1c08f7ed, 0xfce3fb0d, 0xea190aee, 0xe3d21af9, 
    0xeee32e09, 0xeadef319, 0xff0a0ff4, 0xfef6e2fe, 
    0xf7eef4db, 0xed0be1fa, 0x1d05f50f, 0xe5ebc9f0, 
    0xf3ebecfe, 0xeee6fcf2, 0x07dcd5e4, 0xed10edd7, 
    0xfcdd1204, 0xe8f202e8, 0xf9f0e5f5, 0xe8fafdf3, 
    0xda150ce6, 0xfbfeecdc, 0x190d17f9, 0xf2fcf2fa, 
    0xdefeed17, 0xfd231302, 0xf922e5ff, 0x07ee0204, 
    0xfdfcf723, 0x06fef70a, 0xf7f901ed, 0x0d150114, 
    0x2004f3ff, 0x07f60cfc, 0xf5f3fefd, 0xfffa08ff, 
    0xf4f50f00, 0x02f9e003, 0x06fd0ef6, 0xe41c0df0, 
    0x011b0613, 0xeeef081d, 0x1ef6ef04, 0xf2ecef07, 
    0x01fced1b, 0x02fa05f5, 0xfdf7e91a, 0x160205e0, 
    0x03f025e7, 0x22e615f6, 0x0501f9fc, 0x03130910, 
    0x1bf80a17, 0xffce01f1, 0xf7e617ec, 0xfe15ef20, 
    0x0814f8e7, 0xf2110800, 0x03e5f1f9, 0x01f8ea03, 
    0xfd0004f3, 0xfb08f908, 0xff12f201, 0xed000808, 
    0x04ffff04, 0xfb0102ed, 0x08fff2f7, 0xeb0bf3f9, 
    0x08180d0a, 0x07010909, 0xffff03f3, 0xf90a0ffc, 
    0x05061bf5, 0x08f5e900, 0x0a0008ef, 0x09f1f6f4, 
    0x1105f7fa, 0x0c1efa16, 0xec071a16, 0x05000604, 
    0xfe010dfe, 0x0e11ebf5, 0x0df0ef03, 0xf806ebe7, 
    0xff11fc06, 0x1b03fbf3, 0xfff11804, 0x0303200f, 
    0x12031106, 0x0601ebe0, 0x0d0b0afe, 0x05f0fdf0, 
    0xf41904f6, 0x09fcf216, 0xf301fb0d, 0xf202fdf7, 
    0x01fc01ea, 0xff15fc0a, 0xf322e1fc, 0xf60cf948, 
    0xf11d0f0b, 0x09fef5c8, 0x05de011b, 0xd1f01d19, 
    0x2c1b13db, 0x26e9c5fa, 0xfb1bbc28, 0x02c2132b, 
    0x16d5fa25, 0xffe4fbd5, 0xe9db0214, 0xecedca09, 
    0x18b416f2, 0xea430419, 0x04e5370c, 0xd71bffdf, 
    0xf0b24831, 0x4c060430, 0x26f811ef, 0xe6fae4ed, 
    0xee11eccb, 0x1c31ca08, 0xf03b28e4, 0x19fb4b03, 
    0x5518e909, 0x0d2052d4, 0x113b4203, 0x18e41a04, 
    0xf316fa1a, 0x00ed4dd3, 0xf3fc0353, 0x1f1107f2, 
    0xe63fdb04, 0xeaf7e140, 0x14052af6, 0x0b0c0dea, 
    0x130d030b, 0xf2050afd, 0xf606f6f9, 0x1200fcfa, 
    0xe2de15e4, 0x000f2509, 0x1006fcec, 0x1608fd02, 
    0x011a0605, 0xfc05f312, 0xeb001101, 0xf8f6fafe, 
    0xfe140317, 0x0615ffe9, 0xf3f2ed02, 0x05f804f8, 
    0x04130604, 0xeef8090a, 0x01f20225, 0x0201020d, 
    0x111b0f02, 0x0707fffe, 0x0ff11407, 0x1109fbfb, 
    0x00f80901, 0x100ef407, 0xfcfdec0f, 0x060af4ff, 
    0x1bf215e6, 0xff160201, 0xeb14f507, 0x1a02fe0c, 
    0x101603f7, 0x15f701fb, 0x0bfbe4ff, 0xf9ffff03, 
    0x0ffcff06, 0x0505fefb, 0x04fffdf6, 0x0504f6e8, 
    0xfb02fafe, 0xf4fef3fc, 0xfb061104, 0xff0503f7, 
    0xff08f8f7, 0xefedfbfe, 0xf6f804fc, 0x04f7020c, 
    0xf603fd02, 0x0ef90d04, 0xf803030b, 0x07f40efe, 
    0xff010bf6, 0x02060c09, 0x010002ff, 0x0505ecfb, 
    0x050601fa, 0xfc0500fb, 0x050406f0, 0x0f040004, 
    0xf0f50b06, 0x03010512, 0x10f70d05, 0xf9fa0904, 
    0xf602f407, 0x04f3fbe9, 0x02fb03f3, 0xf70df8fe, 
    0x05f2fd0f, 0xff00fa04, 0x08fbfffa, 0xfffbfc05, 
    0xff09f804, 0x080cfcfd, 0x0500fd04, 0x04faf809, 
    0xfefd0d03, 0xfc0d0106, 0x01ff0a07, 0x01f908fb, 
    0xfb080205, 0xf718fb02, 0xfb01f1f7, 0x03f5fe08, 
    0xfcf70808, 0xf2040800, 0xf802f3f6, 0xfb06000e, 
    0x0b0df9f9, 0x00fe0902, 0x07010208, 0x04f80304, 
    0xfb030408, 0xfdfef4fd, 0xf50c0003, 0x060f0102, 
    0x00f808ff, 0xff000301, 0x04f30805, 0x0bfe14fc, 
    0x01fa050a, 0xf9fef8fd, 0xfefaf900, 0x020505fb, 
    0xfc0505f5, 0xfffb0601, 0x14fff804, 0x02fdfdfd, 
    0x040502fd, 0x030b0302, 0x0efdfbf7, 0xf6fb030e, 
    0x09fbf7fb, 0x01ff0004, 0x07f5f102, 0x03f9f90d, 
    0xf7fc1109, 0xf30413fc, 0x01f8fe00, 0x05f80404, 
    0x07f5130e, 0xfffa050b, 0x06f7fd10, 0x0f08f90a, 
    0xf6150a04, 0x0efefbfd, 0x07f209fa, 0xf5eef2e8, 
    0xfcf2090a, 0x090106fa, 0xff020603, 0xf705030b, 
    0xffff10fe, 0xf6f70af7, 0xfd0707f7, 0x12fdf0ff, 
    0xf8f3fa05, 0x0d05ea0c, 0x0a040b11, 0x17fefa10, 
    0x01fdff16, 0xeffd070c, 0x04fffcf3, 0x0a0d071c, 
    0x000403fe, 0xf4000f03, 0xf9fdfc03, 0xf81b09f6, 
    0xfd000407, 0xfffbfbfb, 0xfbfefaff, 0xfafefbf6, 
    0x0cfef400, 0x05010100, 0x0bfafdf3, 0xf50208fc, 
    0xfe030b09, 0x02f908f0, 0x00fe0003, 0x05fef40c, 
    0x05fe05f4, 0xef040007, 0x03fa00f9, 0x00f8fdff, 
    0x0a1005ff, 0x010909fe, 0x030b02fa, 0xf7fff40b, 
    0xf805fbff, 0xff040203, 0xfbf4fa03, 0xfbf901ff, 
    0xf0050609, 0xff02f50c, 0x03f40102, 0xf0f508fa, 
    0x0207f7fa, 0x08f6ff06, 0x05fc0503, 0xfff8fafd, 
    0x0000fd06, 0x03fdfef3, 0x02f307fc, 0x10080903, 
    0x00021008, 0x01fb0401, 0xfc1807ee, 0xf4dcfaf1, 
    0xe003d411, 0x150501f5, 0xf40406ef, 0x061afdf8, 
    0xfafa1b0e, 0x1718e0ed, 0xfa211dfe, 0xc5f9e9ee, 
    0xeee602de, 0xdb0afd1c, 0xe309350d, 0x0ef4e406, 
    0x2f18f705, 0x1217f5eb, 0x050c070e, 0x0207d627, 
    0x1501f7dc, 0x19f21b02, 0xe1faebf4, 0xe5f7eb07, 
    0x13ff0505, 0xfa00f2ee, 0x0a011f03, 0x0b05ee02, 
    0x131dcc3e, 0xdaf4e3ed, 0x0a0bef00, 0xd529f9ef, 
    0xfe1b02ec, 0xebf40add, 0xefd50ffb, 0xfcfbe8d6, 
    0x030109e6, 0x08dd0405, 0xf308f615, 0x0a0321fc, 
    0xf0fe0401, 0xff01fdff, 0x08030701, 0xfff0fd03, 
    0xfb020004, 0xfefcffff, 0xfef4f708, 0x0a05fdfa, 
    0x07f8fc00, 0xff02f4fe, 0xfafcf90d, 0xf0fa04f6, 
    0xff03f709, 0x04f9010c, 0x0005080a, 0xfefcfb06, 
    0xfc0f0a01, 0x04ff00ff, 0x07f9fef5, 0xee0bf307, 
    0xff070bfd, 0x0001fcf8, 0x0101f6fe, 0xfdf810ff, 
    0x05f90806, 0xfc080f01, 0x07fb0400, 0x02fcfa02, 
    0x030f0308, 0xfef7fe01, 0xf904fefd, 0xfeff0706, 
    0x0907fcfb, 0x07020001, 0xfefc01fe, 0xfbf6fbfe, 
    0xf6fb0602, 0xefe000fb, 0x24f7e619, 0x160f08f9, 
    0x020aff24, 0xf8001515, 0x03cb2105, 0xe20c0f06, 
    0xf90be92a, 0xd3f3ddc9, 0x1fd9f81b, 0x24d5d830, 
    0xf3ebff4d, 0x1fe4e4f2, 0xf5163330, 0xe7c900ff, 
    0xbff5f3fa, 0xed0812f9, 0x0ee0d030, 0x0ceaf8dd, 
    0x0df5081a, 0x04f9fd28, 0x02f8edfe, 0x0efc16d6, 
    0xfefe05f0, 0x18e5e6f0, 0xfcfc2009, 0x23eaf3fc, 
    0x0922f405, 0x40f010f2, 0x390e1ef5, 0x06f209f6, 
    0x1522f5fe, 0x58301126, 0x1712250f, 0xfce024e6, 
    0xbf000bf5, 0x17210009, 0x0d0308f6, 0x060bff03, 
    0x09f9010b, 0x0b040ffc, 0xfe05f70b, 0x030003f5, 
    0x00f007fa, 0x0210060c, 0x07f50eff, 0x0108f705, 
    0xfbfffe07, 0xf703fb05, 0x080908fe, 0x06fcfa10, 
    0xf9fffa1e, 0xfe07f606, 0x00f50afd, 0x1101fdf7, 
    0x0619f900, 0x0fef0304, 0x07fa0012, 0x0805f705, 
    0x0bfe05fb, 0x0906fbfe, 0x05060e09, 0xfafaf901, 
    0xf8fb0601, 0x0b05f512, 0xfe0cfc09, 0xe9fdfe03, 
    0x06140aed, 0xf401f5fb, 0xee0b00fa, 0x08030208, 
    0x101809f7, 0xf907fe03, 0xf9f5f60b, 0x050104fa, 
    0xdf01fd03, 0x0315f81b, 0xeefff8f2, 0x0bf3da36, 
    0xef03e7fa, 0xfeef0f0b, 0xe9fc0dff, 0xf3001008, 
    0xf8eff3e3, 0x0cdef911, 0x00ee0324, 0x0fe70222, 
    0x0ff9ca0d, 0xd213330d, 0x04f6f00e, 0xebe41024, 
    0xe3ebfce8, 0xf8ec01f6, 0x06f20603, 0x21f5f607, 
    0x0b0af511, 0xf2090d06, 0xdd0311e4, 0xfe0f08ce, 
    0x0102fcff, 0xedf80509, 0x34e20b06, 0xfe04171a, 
    0x23ed041b, 0x0eea1406, 0xe8dd0a00, 0x0f0a25f3, 
    0x3402fc1b, 0xf507210f, 0x09fd0ef1, 0xfbff09fb, 
    0xe9fa01d0, 0xe2f61200, 0xff05e401, 0x0c13f605, 
    0xef08f109, 0xffee0dfb, 0x05080ef2, 0x0306010d, 
    0x0cf3e5f6, 0x192b0f06, 0x02ff30f4, 0x20fc13f6, 
    0x0402fefd, 0x19ebfc04, 0x03f40613, 0xfaedfa1a, 
    0xf9f0fc1b, 0xebf129f7, 0xeb04f60b, 0x08eefefb, 
    0x20fcfff6, 0xfa0af4f0, 0x170201fe, 0xfc1ae80e, 
    0xfbf70601, 0xf8f90115, 0xf2030a21, 0xea15080f, 
    0xef21fb08, 0xee0efe12, 0xee21fe17, 0xedf405f8, 
    0x02f80910, 0x10fd0afd, 0x08ee1b28, 0x070302f0, 
    0xfc04ef08, 0xebec06ec, 0x1d02ee0c, 0xff01faf9, 
    0x010e070c, 0xf300fd01, 0x0805fa04, 0x0e03fd00, 
    0xfcfff1ff, 0x0bf0f4f5, 0xf60f0b06, 0xf50a0503, 
    0xf2050203, 0x06000f00, 0x0dfefdfb, 0x0203f1fb, 
    0xfefaf7f6, 0xfdff0efb, 0x0106f2e9, 0x04fbfaff, 
    0xfb05fb0e, 0x0a0005f7, 0x08fb0b11, 0xf9020a0e, 
    0x01ecfff2, 0xfa0303fa, 0xf4f509ec, 0x0008fd01, 
    0x0df70003, 0xecfc04ff, 0x09030ff7, 0x010b01f9, 
    0xfffa0eff, 0xf6eb0209, 0x02eaf6f6, 0xf7fefcfd, 
    0xf60e090e, 0x130910ed, 0xee03070b, 0xf9fbf305, 
    0x03001401, 0x131b05ff, 0x05f3fe06, 0xf418f206, 
    0xf5fb070a, 0x010709fa, 0xfefffc0c, 0xf3fc07fc, 
    0x00f30204, 0x04ec03f7, 0x0209fbfe, 0xff09f70a, 
    0x10fffef7, 0xfef5050e, 0xe50a0607, 0xfafcee07, 
    0xfd010a08, 0x0403f8fc, 0xfe00fa02, 0xfb0109f2, 
    0x02f00cfe, 0xf2f3fc06, 0x0af70800, 0xfcf81303, 
    0x10faf0fb, 0x060ff20a, 0x060bfcf2, 0xf30d0813, 
    0xf302f9fe, 0x0000fa05, 0x02e8f203, 0x06f7f7fe, 
    0xf3010e0e, 0x1df003fd, 0x1007f6f3, 0x16010ff7, 
    0x020801f5, 0x12fcf105, 0xee07050b, 0xf21d0d02, 
    0xe4fffafc, 0x0a040d03, 0xfbf40cf6, 0xe43aec05, 
    0xfae1fb02, 0x0c182bfb, 0x01f01321, 0xf8fcf70d, 
    0xf3e22404, 0xffe9000a, 0x0d0e14e2, 0x10fdf705, 
    0x162ef6df, 0x2f0c20d3, 0xd81cfae4, 0xf8f82010, 
    0xff040df0, 0x04d80c01, 0xfae40125, 0xfff632fd, 
    0x1302faf4, 0xe30ef3e6, 0x2615ebf8, 0xe0e8f30a, 
    0x07020e20, 0x1f11ff18, 0xd90ace15, 0xe519fa12, 
    0xe5f1e5ea, 0xfd0207e5, 0xe8f70f05, 0xeef0fe09, 
    0xf9e513e7, 0x11ef1a00, 0xe40ae904, 0x00002efc, 
    0x05f90708, 0xf8000cf7, 0x0d010500, 0x1211fe11, 
    0xfc05020c, 0x1d2e02f4, 0x0108fdfb, 0xee010400, 
    0xef01fb16, 0xfe03f902, 0xfaf403f9, 0xf9f4ecfe, 
    0xfe1409f2, 0x05f30f00, 0xf0fe080a, 0x0e19fef7, 
    0x0f130ffb, 0xecfc0810, 0x1302f9f7, 0x0af4f7f2, 
    0xf30c14e4, 0xebfe0df9, 0xecf8f6fe, 0xff09f404, 
    0x040817fd, 0x0f0d0502, 0xf8fb09e9, 0x0ef70508, 
    0x11fb0c09, 0xf7ed0611, 0x1d050c19, 0x10f9f2fa, 
    0xe1f7fffd, 0xf2f00bfc, 0xfe0405fb, 0x05151612, 
    0xf4061afd, 0x06010eff, 0x0af90802, 0xf71b12f7, 
    0x020a040c, 0x0807f105, 0x13eb0aff, 0xfc0312fe, 
    0xfafb0006, 0xf904fa05, 0xf4fd00fb, 0xfa09f908, 
    0xf6fb0210, 0xfcf1fffb, 0x0d09011d, 0x01fafe01, 
    0xf105e7fa, 0x0bf909ff, 0xf913fa1a, 0x11040df9, 
    0xf50cfb12, 0xfd0c1605, 0x00eafb1b, 0xf5fe08fd, 
    0x0608f0f0, 0x0ffe0004, 0x06050700, 0xf5fbfb04, 
    0x0b31d808, 0x0e030b09, 0x080b00fc, 0x120005f4, 
    0x0205fdf1, 0x000efcff, 0x12000604, 0x03061700, 
    0x08010407, 0x0513fd16, 0x03f9fbfc, 0x02191714, 
    0xfbe90ae1, 0x06f40904, 0x0dfdfa20, 0x07f7fef9, 
    0xcde30f0f, 0xdc052104, 0x21041103, 0x02d90312, 
    0xe2ede228, 0xfad3fd2b, 0x23faf813, 0xded6fbfd, 
    0xf00b22f0, 0xffeade00, 0x1320f211, 0xf3f20909, 
    0xfa190a14, 0xedea1501, 0x00c60026, 0xf111eb18, 
    0x03f10a03, 0xf9110ffc, 0x20eb05f2, 0x02f7f007, 
    0x0c07081d, 0xdfeaca03, 0xf1efd4e6, 0xeae4db0d, 
    0xfcf5f32a, 0xda09041f, 0xd8eafbef, 0xf7f9ccf7, 
    0xfa0412ec, 0xf60c1714, 0xfe00f001, 0x05fb1cf5, 
    0x04fc0d06, 0xf00afe0b, 0xfd02f701, 0xf2040ffa, 
    0x05fcfbfd, 0x170beef9, 0xfc04fdfb, 0xfeed03f7, 
    0x13f2ef15, 0xe70cecf1, 0xffecfd07, 0x0d0b00f1, 
    0xe815dcfc, 0x000b02f1, 0xe51614fe, 0xf9e727f9, 
    0x060101f7, 0xfaf308d9, 0xfae9f0e6, 0xd6f1f0f7, 
    0xf7f0f5fa, 0x101a1ae7, 0x070003e5, 0xf10d010a, 
    0xe3020202, 0xf3fe1404, 0x07f808ed, 0xdafb0010, 
    0xd0f2e406, 0x0105ea07, 0xf7f5ece3, 0x0205fefc, 
    0xe518f8ff, 0xf1ee0cf9, 0xf8e11a16, 0x1114f9ff, 
    0xf90601f7, 0xf70ff5f9, 0x16090605, 0xf9f807f4, 
    0x0111fdfc, 0xdd1dfa0d, 0x0803f309, 0x0a110a00, 
    0xf8250bfc, 0xdf04ebdd, 0xfa0cfa04, 0xf40ff6ff, 
    0x0024f606, 0xdb1010e7, 0x11f616fb, 0x000c05fd, 
    0x2128f5f8, 0x0afadfe9, 0x09dbf1e9, 0x01fd0803, 
    0xf3fefbe6, 0x0eeb1d09, 0x03f00711, 0x14f613f9, 
    0xff0100fc, 0xfefbfe08, 0x0b0ef0f8, 0x180808f4, 
    0x1d070904, 0x04fee30b, 0xfe0716e7, 0x01080ed8, 
    0xfb070ae3, 0x1a1c1007, 0x18021c1b, 0x0a1508f6, 
    0x0e080de1, 0x2f020f01, 0x04fa0c10, 0xbef4ef00, 
    0x03f6f4f5, 0x14ebfe1a, 0xf302edde, 0xf5f903e5, 
    0x03f11a05, 0xe8d3042a, 0x1a0dfaeb, 0x0cd4fd10, 
    0x12f8ed1a, 0x06ca0902, 0xfad3fcf3, 0x04f90bec, 
    0xc9feef05, 0x340ffae5, 0x0ef2ebe9, 0xe20ce50b, 
    0x22fbf40b, 0xe309f6bd, 0xe0ca2b06, 0xebe2ff2a, 
    0xde050605, 0xeeffe3e9, 0xf00afff1, 0x0104d7f9, 
    0xe701f7ea, 0x14fee428, 0x1dfdf818, 0x32ee19f7, 
    0xe7071014, 0x0a03f913, 0x070e0403, 0xff122103, 
    0xf61be613, 0x0403ddde, 0x0ee0fafb, 0xe7f1d6f3, 
    0xe7f40601, 0xf802050f, 0x1d0df304, 0x0aeef2ff, 
    0xfbf4f9fb, 0xdcfb0af6, 0xe307160b, 0x05ebdfff, 
    0x00fbed04, 0x010109e4, 0x0bf3fcfd, 0x00e2eaf4, 
    0x15f106fa, 0x0afc0602, 0xd9defb13, 0x16f20cfe, 
    0xf1fb15f7, 0x081fe106, 0x0514fbff, 0x10ee1c0b, 
    0xfdf50f07, 0x0c24e8e4, 0xfa2709f6, 0xf5def904, 
    0xf800ea07, 0xf6030a10, 0xfc09de21, 0xf2fced1d, 
    0xf705ec04, 0xf01d0bfb, 0x12c5e82e, 0xf500f9f4, 
    0x07e8e2f4, 0xfbffe315, 0xcfffeef2, 0xe4f80717, 
    0xdb05f4ea, 0x08fde5ed, 0xfffd1403, 0x0b000e0b, 
    0x16ee0106, 0xf71bf6f6, 0x0d1122eb, 0xeff80c02, 
    0xfaefe502, 0x2c1e0aef, 0xf4f9fee2, 0xfc0ef509, 
    0x05ece807, 0x0cfffdf1, 0xe4ee04f0, 0x1702f4f3, 
    0xf30d0ff3, 0x010bedec, 0xf8160b22, 0x0ee612fe, 
    0xf507ef10, 0xe3fb0e02, 0x04effa1d, 0xfeefe5f6, 
    0x26fff3de, 0x03fffaf2, 0xf0fc04fc, 0xe7fa13e8, 
    0xecee0001, 0x0cfaf20a, 0x000608e1, 0x031a0c01, 
    0xfe150402, 0xe7ffe7fd, 0xf6fffedb, 0xfffc030f, 
    0x120a1ae5, 0xf4fe09fd, 0x01f2f006, 0x190b0c04, 
    0x0cfde613, 0x1afb100d, 0xf2011909, 0x042fec09, 
    0x260007f1, 0x09e4ffc1, 0x0612d1e3, 0xeeeafef0, 
    0xf70bf6f5, 0x0d0910f8, 0x020e0204, 0xe5ff18e3, 
    0xe914dffd, 0x0c08f42c, 0xf50dbfd9, 0xe910e1f9, 
    0x1fe30215, 0x0110fcfc, 0xf2f1fcf6, 0xf81df8fe, 
    0x0ced1316, 0x0cdd100d, 0x0df1ed00, 0xe514fff8, 
    0x0bf6fdf2, 0x24cdf009, 0x1419e8f7, 0x0deb2ffa, 
    0xeff405fe, 0x0c142ced, 0xef1304ec, 0xfc16e41d, 
    0x241f0d15, 0x22fcf910, 0xf3012ffd, 0xfb02e116, 
    0xfc0d0b14, 0xc5e520f0, 0x1c2a1a1f, 0x14130fec, 
    0x3e28f91d, 0x11f2f508, 0xd8e8fa0a, 0xc10b02db, 
    0x0e2e081c, 0xcbfecebf, 0x1607f721, 0x2ab4f72a, 
    0x2fa4fa08, 0x0bf504f6, 0xe2141b10, 0xfbd0f7c9, 
    0xdede0efc, 0xf6240212, 0x240f03db, 0xeefa10db, 
    0xd6ba2011, 0x18220335, 0x18ff31f7, 0x0a071da3, 
    0xf82310ce, 0x1320bcc5, 0xee0e2be4, 0xfbdd2e02, 
    0x6d202b2e, 0xf0f411fd, 0x08160507, 0xf2e2f524, 
    0xed34d5e2, 0x1a0ac421, 0x05130922, 0x0708fbe4, 
    0xac37430b, 0x012aeb21, 0x101024fc, 0xfc08edf0, 
    0x060b0019, 0xfe030efd, 0x00061108, 0x0bfb08fe, 
    0xf40502f4, 0x16f8f1ef, 0xf602f8ee, 0x100910f6, 
    0x0df6030e, 0x04020efa, 0xfdf50eed, 0xf70b0011, 
    0x1107f8fc, 0x08f7f1fe, 0xf9f7fcf4, 0x0dffeafb, 
    0x0c0efa15, 0x01ff0f23, 0xfe0bfa01, 0x06f6f9f3, 
    0xfd1100f1, 0x15ff0dff, 0xfdf908fd, 0xf110fd07, 
    0x13f7f5f9, 0x16faf504, 0xfc151c0f, 0x03fef712, 
    0xf40608e5, 0x04fb07ed, 0x03f004fa, 0x01160910, 
    0xfef9fc16, 0xfbfcfb0f, 0xe3feeb09, 0x13fdfbf6, 
    0xfd12e600, 0x07fff600, 0xf506f2ff, 0x0500f902, 
    0x05fbf903, 0x070606f8, 0x08040f01, 0xff1108f0, 
    0x01fd0a09, 0xf60900fb, 0x0a050800, 0xf906faf9, 
    0xf806080e, 0x03fc01f7, 0xfb1206ff, 0x0cfcfafe, 
    0xeefffbf4, 0x0201fe02, 0x0108ef03, 0x0e01f2f6, 
    0xff060b14, 0xf6fff5fd, 0x0d04fef9, 0x03090cfc, 
    0xff050d0b, 0x01f30209, 0xeffbe70a, 0x000509fa, 
    0xfa03f9fc, 0xf80000f5, 0xfcfb07ff, 0xf4f701f6, 
    0xfaf2f6fd, 0x00fafcf7, 0xfd0e06ff, 0x01f90b08, 
    0xf4f7020c, 0xf7f90501, 0xfd020100, 0xfffaf3fe, 
    0x03030e0a, 0xf6f203fc, 0xf8030e01, 0xf0050efb, 
    0xf6f91209, 0x0af3f401, 0x04ff11f5, 0xf900f609, 
    0xfa0b040a, 0x09f5fb0b, 0x07010401, 0x00020109, 
    0xfef9f902, 0x01ff0001, 0x06150d06, 0x01f60200, 
    0xfb0c0001, 0xfefc0712, 0x00010ef3, 0x01fcf906, 
    0x04f1f4fc, 0x010210fc, 0xf804f6f5, 0x02fb0d0f, 
    0xf7fdfc00, 0x040810fc, 0xf80af806, 0xfdfbf20e, 
    0x00f9fef5, 0xfd01f7fb, 0xfa0204fd, 0xfcfb0300, 
    0x0dfe04ff, 0x0a0bf308, 0xf8fdfa0c, 0xfdff00f5, 
    0xfa0507fe, 0x0b0003f8, 0xfafbf5f4, 0xfdf40200, 
    0xeb07fd00, 0xf8f501f7, 0x02fef707, 0x0eef0903, 
    0xfefbfb05, 0x10ff060f, 0x030001f9, 0xfa0af303, 
    0xfafd0bff, 0x12ff07fb, 0x0b0105f9, 0xfafce9fd, 
    0x06fbf501, 0xfc08ff02, 0x02e914f2, 0xf1020515, 
    0xfc0410f9, 0x0404f4f9, 0x060c04fa, 0xf714fafe, 
    0xfb0405f7, 0x02f603f9, 0xfc160e0a, 0x00f9000b, 
    0x1d0100fb, 0xf3f9f007, 0xfc03f60c, 0xfd06fe08, 
    0x040a060e, 0xf000f3fe, 0xfe020802, 0x0208f4fe, 
    0xf0f5fdff, 0x07fcfafa, 0x01080a00, 0x0603f902, 
    0x050bfefa, 0xf8fe0202, 0xfbf9fd02, 0x08fb08f6, 
    0x050a0dfe, 0x0409fe09, 0xfcfdfc02, 0xfe0606f7, 
    0x13ff0307, 0x0503fcf6, 0x02fd1304, 0xf80103fd, 
    0xfe03f6ff, 0x0bfe0108, 0xff010607, 0xfd0901ff, 
    0xf2fd0102, 0x03fdfefc, 0xfaf601fd, 0x0000fc01, 
    0x09fafa09, 0x0509f403, 0x05fdfa00, 0xff020204, 
    0x09070606, 0x08ff0200, 0xfef9f9f9, 0x03fd010d, 
    0xef0904fc, 0x02fdfa02, 0xfdfefa0a, 0x06fcf6fd, 
    0xf602fafe, 0xfefc0904, 0xdefa0504, 0x14fef4f3, 
    0xe9fef5f9, 0x00fb03f2, 0x19eaf5fb, 0x042af502, 
    0x09f2dfe1, 0xfff6fbd9, 0xf2f81e0e, 0xf30a00db, 
    0x040a19df, 0xe037feec, 0xee0d3902, 0xe5f7fffc, 
    0xf506e50c, 0x241c06ea, 0x04f109ff, 0x1511ea2a, 
    0x0f261006, 0x1423e9ee, 0xddf2f3e3, 0xf2ecee1e, 
    0xf1f90f1b, 0xf6e91ff6, 0xec2b33f0, 0x1100e816, 
    0xef0fe20b, 0xf5f2f0cd, 0xf511fe0d, 0xf107ebdf, 
    0x061100f0, 0xcff3f7f4, 0xf8f2e007, 0xfef1e6f5, 
    0xfd1cf0f8, 0xf9ecedf5, 0xf5f5ecff, 0xfcf9fd03, 
    0x01f80102, 0xfd0cf500, 0xfd020901, 0x01fcffff, 
    0xfcf9fc04, 0x0404f804, 0x02fdf9fb, 0xfff7f50a, 
    0x0efdfdfc, 0xfe0a16f7, 0x010000fe, 0x000a0101, 
    0xfbff040a, 0x0bfff7f3, 0xf505fffd, 0xfb090303, 
    0x0bfa01fc, 0x01060901, 0xf6fd0108, 0xeb03fc03, 
    0xfaf7fef5, 0x070d0afa, 0x0bfdfe00, 0xfc0cfd06, 
    0x01030dff, 0xfefe1104, 0xfe02f403, 0x050bfffa, 
    0xf7fdf403, 0x08f8f8fe, 0xfbfafdfb, 0x08f80301, 
    0xfa0a09fe, 0x0df8fef5, 0x01071005, 0xeff9fdf8, 
    0x0afafefc, 0xf1ec0608, 0x1800f51e, 0x260a23e9, 
    0xf8f6fa1a, 0xfdf9f40f, 0x1bd41e01, 0x1a0bf4d8, 
    0xf7e6da1b, 0xd3f5fdd1, 0x170417f2, 0xf701cf19, 
    0xfbfb0126, 0xf7f6f40f, 0xe92414fe, 0xf6cde206, 
    0xbefb0b07, 0x0cf0f515, 0x0ddbd2f7, 0x0ce30bfc, 
    0xe51fe7fc, 0xf01b16f6, 0x1507f806, 0xfdfd09d0, 
    0x09090705, 0xfde006d7, 0x031f0af5, 0xe70ef2d5, 
    0xe51af429, 0xf7f108e3, 0x3108e90e, 0x0d051505, 
    0xfb23f10a, 0x1a2fdb1c, 0x0ffe3907, 0xffe31706, 
    0xd2f802f9, 0x0a3105df, 0xf20cdefa, 0xf8f9f204, 
    0xfbff0004, 0xfc0b0504, 0x030c0403, 0xfffdf906, 
    0xf80fff03, 0x030803fc, 0xf6120507, 0x0100fd01, 
    0xfcefff0c, 0x0b010408, 0x100109ff, 0x0afdfc01, 
    0xfefafff8, 0xf7f7fe03, 0xfdf406f3, 0xfd06f908, 
    0xfafafffa, 0xf70cfff8, 0xeb03fdff, 0xf806f5fe, 
    0xfe000803, 0xfdfe0001, 0x03fb0308, 0xfe07f901, 
    0xfffd0205, 0x0efffbf9, 0xfd081200, 0xfff902fe, 
    0x06000000, 0xfcff030f, 0xfc02fafb, 0x080508ff, 
    0xfffe00f9, 0xf307fefe, 0xf8f7f7fd, 0x0d000df6, 
    0xecfdf70a, 0xfefdf124, 0x0a030303, 0xfcfdec1d, 
    0x0009f304, 0x15d81504, 0xfbf314f4, 0x02e6ed26, 
    0xe9eaf8f3, 0x12e6120c, 0xf9f7fe17, 0xeeeffe23, 
    0x13ecefef, 0xeb1d1e0a, 0x00f3f300, 0xec13f9fc, 
    0xfdf2f300, 0xf1e7e102, 0x0bed0cfb, 0xe1011918, 
    0xe60fff28, 0x10ec0a01, 0xf1030d08, 0x0f0d0af6, 
    0x09fde7ee, 0x0afe1706, 0x0c12d8fb, 0xee0ef116, 
    0x08f1020d, 0x16fd0b16, 0xf8fb1dff, 0x140308fe, 
    0x151df418, 0x12f424ff, 0x09ee2203, 0xeced1c02, 
    0xf220efdd, 0xdeefe5fa, 0xf6f8ff0d, 0x0efa0114, 
    0x0a030510, 0xec0706f6, 0xf50404f8, 0x01f9020d, 
    0x0bfffbff, 0xecebfe04, 0xfe08f3ef, 0x0705f606, 
    0x050102fa, 0x07fe09ff, 0x04fe1508, 0x0cf0f103, 
    0xfef1f505, 0xfc0304f4, 0x090dfaff, 0x0d03fa07, 
    0xfee80906, 0x0f0ffff6, 0x14fafcfb, 0x05ff08f2, 
    0x08e800fa, 0xf3fa0304, 0xfc14050f, 0x0cfeecfc, 
    0x0b080afa, 0xf4131501, 0xf00b0705, 0xfd040c08, 
    0xf9f8fdfa, 0xf7fe01fa, 0xfbf4040c, 0x0400fc04, 
    0xf6fffa04, 0xf603f903, 0x16f9f603, 0xfafa0909, 
    0xfffe080b, 0x03f7f4f3, 0xfa08fbff, 0x050609fc, 
    0xfcfa09f9, 0xfff70ffd, 0x01fa070b, 0x07f7f7fe, 
    0x17fe09fd, 0xfbfbf600, 0xfffd0513, 0x0709fdef, 
    0x0c03f009, 0xf9faf3f0, 0xfc09fff0, 0x0408ea00, 
    0xfe0203e6, 0xf7f30ef5, 0xe5f80efb, 0x07060209, 
    0x020206f8, 0x0e02f502, 0x08fdfefe, 0x0007f6fa, 
    0xf10700f3, 0xfdfe0bfb, 0x0b0b0010, 0x0109fa0a, 
    0x1101fd06, 0x0204f300, 0x0300fe04, 0x0e1c04f4, 
    0xfc0aff03, 0xfc03fcfe, 0xfb03fb0a, 0xf003ecfb, 
    0xf2fff9f7, 0x1a0dfd06, 0x09f0f4fa, 0xfc10f50b, 
    0xe6070b05, 0x04faf8f5, 0xeeea0410, 0xf80df9f0, 
    0x0cfcf900, 0x03fbe503, 0x03040401, 0x0209f90d, 
    0x06060404, 0x0503fbf7, 0xf3fafd0b, 0x08f6fd01, 
    0xf7e4f40e, 0xf003f104, 0x020df2f3, 0xf1060c01, 
    0x07f211fe, 0x0c01f607, 0x090c0202, 0x04070402, 
    0x09ee010d, 0x09fd02fc, 0xef0c1003, 0xf70bfa0a, 
    0xf71aeffc, 0xf40be50d, 0x13ed06f8, 0x02fbf0fd, 
    0xf30eff05, 0x13fa0103, 0x27f4fef1, 0x1307ff00, 
    0x080af0f8, 0x06f7f103, 0xeaff0705, 0xfb22f60c, 
    0x12fb0105, 0xf1f20cfa, 0x08e600fc, 0xd01cf1fd, 
    0xf2e90306, 0x1f0126f3, 0x05e0080a, 0x0a14ee1c, 
    0xf9ee24ec, 0x0fe000e9, 0xf7291fe6, 0xf0041fe2, 
    0xf429fcee, 0x33f629f5, 0xed08eb03, 0x07de13fc, 
    0xe1f1faff, 0xdddb1311, 0xfce5f73e, 0x1e183617, 
    0x0fffff06, 0x0422eaf0, 0x0d19dc06, 0xdb0a03ff, 
    0x06050907, 0x1f0a182b, 0xd8fbea1d, 0x2119d419, 
    0xe202dc01, 0xde0e00ed, 0x021702ff, 0xf6090921, 
    0xe2f2e811, 0x1cf1f510, 0x0006fbee, 0xfcf1fbff, 
    0x12fd130e, 0xfaf4fdf2, 0xfdfa0605, 0xfcfc0205, 
    0x08f5f005, 0xf5f4fd03, 0xfef42f0f, 0x0ff60509, 
    0xf8ee0b0e, 0x03f6eefb, 0x03e4eb12, 0xf709021a, 
    0xeef1eeff, 0x0e121c00, 0xfeffea00, 0xff13080d, 
    0xf9e512fd, 0xf30902f9, 0x02ea0102, 0x01e8ff1c, 
    0xf0f8f62a, 0x02040405, 0x0d010704, 0x1d0504f2, 
    0xfbe5de0c, 0x17fa040c, 0x04faf4fe, 0xf9f1f4ef, 
    0xedf6ff06, 0xfc09f00a, 0xfd130afc, 0xecf2eafb, 
    0xf905eef6, 0xf41b06fb, 0xff01080f, 0x09f7fcff, 
    0xff0b04f7, 0x0cfef3f5, 0x0eec0018, 0x0cfbff00, 
    0x040b03ea, 0x0ffe05fb, 0x040b0efa, 0x1100f4f6, 
    0x01fff3f3, 0x05ff2605, 0xfb1e0df3, 0xf9fc05f8, 
    0xf822fe04, 0xf10b1cfb, 0x0df5fbfb, 0xeb0ef904, 
    0x0d1a0605, 0x180efc07, 0x0105eee5, 0x010f02f6, 
    0xf216eef1, 0xf1fcfcf5, 0x0005040e, 0x0cf90505, 
    0x16ff19f7, 0xe4101801, 0xf905fcf0, 0xf31ef003, 
    0xf8edfeef, 0xf60ffa09, 0xf607e6f2, 0x0210040d, 
    0xf7f5edf8, 0x111cedfe, 0x12050907, 0x050ef7fd, 
    0xfb0206fd, 0xfeef07f3, 0x07f80001, 0x03f013fb, 
    0xf5ea03db, 0x1d21dc0c, 0xf11719f4, 0xf906f90f, 
    0xe0ca1801, 0xe81afd15, 0x0de6dffc, 0x11e0e717, 
    0xf7e40703, 0x041bf01b, 0xfb1afc1f, 0xfefa0b07, 
    0xee1303f6, 0x0b13ef09, 0x02e2fc06, 0x0d27fcf7, 
    0x0108fa16, 0xdd142ef7, 0x0fbd2e25, 0xe10d1138, 
    0x0914e1f9, 0x00fcde02, 0x2609faed, 0xfa0ceef3, 
    0x131a0fed, 0x02dcf908, 0xef05f6e5, 0xff020c11, 
    0x02e2e8fd, 0xff11e904, 0xcb2701fb, 0xfbe10f07, 
    0x1109ede2, 0x0310ff08, 0x1209f502, 0x1ff2f3dd, 
    0x2005effd, 0xe7051707, 0xc6fbe817, 0x1a2612f0, 
    0x0c15ecf1, 0xfb16edf0, 0xf9fce60e, 0xfa1a20e8, 
    0x0dfd0607, 0xf1101214, 0x0cff12e6, 0x28e8ffd0, 
    0xf4050ced, 0x23eceff7, 0xe50808cd, 0x1e08e5e3, 
    0x021201f3, 0xce3c41d2, 0xe71217f3, 0xf5ec03f9, 
    0x33ecfa0f, 0x0af0ec0c, 0x11fd001c, 0xfa0116d5, 
    0xee1af90d, 0xee0f0d00, 0xeffb40e5, 0x28feec03, 
    0xd520e6fd, 0xf4fff517, 0x0823e1eb, 0xf9f7ebf1, 
    0xdad40dbb, 0xf806fa11, 0xfb0bfdfc, 0x100d0e0c, 
    0xf3e7d007, 0x062826fc, 0x04e7cf00, 0x09fcf7f5, 
    0x021ef9fd, 0xd6f70e12, 0x121100fc, 0xfeea190a, 
    0x0b2621ee, 0xfff3dc02, 0xeaee0020, 0x08010b02, 
    0xfb340af8, 0xfa1d1e01, 0x130103f7, 0xf914e6e1, 
    0x0d2cdb04, 0x0ef7eedf, 0xf228f9f0, 0x05f2e8fa, 
    0xcc1f21f8, 0xf2e32619, 0xe6e9f22b, 0x24f2e3e8, 
    0x110d0602, 0x03f610ec, 0xea0bf2f2, 0x031f0105, 
    0x0bdc0a08, 0x050cf6fd, 0xfcea0df1, 0x1710e0f0, 
    0x15f517fd, 0xd0111101, 0x0ae314f9, 0x1e2002ec, 
    0x0afb16f5, 0x250ce3ff, 0xfa00e3f2, 0xebfdf104, 
    0xf0240100, 0x07f30222, 0xf30411e3, 0x16ebf6ef, 
    0xdd01f4f2, 0xe1eeeb0b, 0x06fcfcdd, 0x15e70326, 
    0x021eee06, 0x1ddd14f9, 0xfaf0fbf1, 0x001515f5, 
    0xf3e303f7, 0xfe1116d9, 0x25fe1bf3, 0x0ff9fa0c, 
    0x0a121bf8, 0xd92a0ee7, 0xd7e40bfb, 0x0ddefc1f, 
    0x06f307fc, 0x0afcebff, 0x07f40601, 0xeb17dbff, 
    0xec17fe06, 0x060bfdfb, 0x13f5fe00, 0x08061908, 
    0x051b01f3, 0x07ede508, 0xeee4eeec, 0xfbf814d8, 
    0xef1ee902, 0xfd13de07, 0x040fe8ff, 0x09e7ff02, 
    0xf7f4fc02, 0xfdf7f61c, 0xf61ae632, 0xf9f0ee0f, 
    0x130cfdfe, 0xf1feebfc, 0x2203de44, 0x3806dd00, 
    0xf7ed52f3, 0xe60feee7, 0x1e0106e5, 0x01f7eeee, 
    0x36e906d6, 0x37f20c25, 0xfbeeedf7, 0x11e7f028, 
    0xe2e924fb, 0x05fccffa, 0xf40f02df, 0x3513ebe2, 
    0x0620d9da, 0x3815e602, 0xfd180435, 0xdbdcfbfe, 
    0xd4160133, 0xfff8261b, 0xf01fdefc, 0x2e2a2ee8, 
    0xfc2ee012, 0xfd2ef6f6, 0xebfb2529, 0xfff2e3dd, 
    0x06fdfdf1, 0xedef03f1, 0xfa18efe5, 0x02f8e3df, 
    0xf2f72cef, 0x1100e206, 0x47fdf5e4, 0xf6f21af7, 
    0x060b0aec, 0xf41130fd, 0xff0ff91a, 0x0ffb0308, 
    0xf02f18fb, 0x19f3f9fc, 0x0c01fcfe, 0xf809ffdf, 
    0xf627fd12, 0xf901ff09, 0xf6ee04fd, 0x1bf2f703, 
    0xfeedf1fc, 0xe2fbf8fd, 0xf9e50ff4, 0x05082622, 
    0x01e6fe1d, 0x0af4f9f9, 0x28f20de3, 0x0ff8fc10, 
    0xf400e7d6, 0xfc0ddced, 0x15f41308, 0x000b0d14, 
    0xf20d2214, 0xda02f900, 0xf8fcf1f7, 0xf322e9fa, 
    0xeefdf6e8, 0x05f20a08, 0x04faec05, 0xf6e7e5e1, 
    0xfbe0e9f8, 0x1b24ea08, 0x0c06f932, 0x15e809fe, 
    0x0116f6fe, 0x09f9ff09, 0xf7ff0903, 0x09fd06f9, 
    0x01ff0bfd, 0x11f0f5fc, 0x00faf701, 0x0b0ffff5, 
    0x06fdfbf7, 0x00fc07e3, 0x05ec01ff, 0x01fff0fa, 
    0x10fcf807, 0xfe07000b, 0x04f3f8fa, 0xf8040209, 
    0xf7ec07f4, 0x0204efeb, 0xfff3fe00, 0x0014ecf2, 
    0x0309f503, 0x0a07010b, 0xf5180e08, 0x06fb0705, 
    0x0802faff, 0xf4f1f3fc, 0x020ffdfe, 0x01fff7f8, 
    0xfb0c0af3, 0xfd0304fc, 0x00f900fc, 0xff010f05, 
    0x16fc0b15, 0x040a02f6, 0x0901fef4, 0x07fa10f6, 
    0xeafb060d, 0x2deaf607, 0xf9fa2326, 0x060518f4, 
    0xe90b09f3, 0xfa01ff05, 0x01edf7fe, 0x000cfbfc, 
    0x0a04f60b, 0x02fc02fc, 0x0efb080c, 0xfb21e925, 
    0x1fe5ff00, 0xf2ff07ef, 0x40ffeaf2, 0x0af1fcef, 
    0xeaf8fae2, 0xfe07e3fe, 0xe4f30ce5, 0xfce7f629, 
    0xe91006dc, 0x0616f2f6, 0x1909fd04, 0x0200fdfd, 
    0x0107e602, 0xece4f7ea, 0xeff81ff4, 0xf3f508f0, 
    0xf305e620, 0x02f9feed, 0x0f00f623, 0xf7fb02e7, 
    0x08f4e518, 0x0f11f60c, 0x03e32cf5, 0xf8ea0e0f, 
    0xf6151a01, 0xfe24e502, 0xf7f8e1f7, 0xf5faf103, 
    0x05060004, 0xfc14030c, 0xfbf80501, 0x010afaf7, 
    0x040d0df3, 0xf60aecf8, 0xfa0702f6, 0x02fd05fe, 
    0x00fcfeed, 0x050810fb, 0xfbf40401, 0x100cf407, 
    0xfbfb07f7, 0xfc0c0302, 0xf8fc02fe, 0x03170e08, 
    0xf90a07f7, 0xf003f809, 0x1203fa02, 0xfb0c00f1, 
    0xf810fd05, 0x02fbf3fb, 0xfe05f10a, 0x0bf515fb, 
    0x0d040108, 0xfdfff6ef, 0x0502f515, 0x0c0cfc01, 
    0x080318f9, 0x020b080e, 0xfb050af4, 0x1203090f, 
    0x0005080d, 0xf604000a, 0xf6f7010e, 0xf0021312, 
    0x0cfd03ef, 0xf60212fd, 0x0107fff1, 0x0df506ee, 
    0xfcfcff0a, 0x060df500, 0xfb0204f9, 0xf9ff03f2, 
    0x04f6fdf4, 0xfa01040f, 0x03fc0cfe, 0xfffdfa03, 
    0xf2050002, 0x10ebecfa, 0x180005fb, 0x120505ff, 
    0xfdf7f9f6, 0x01030b03, 0x110bfc07, 0xff01f1f5, 
    0xf908fa00, 0x0dfceffa, 0x0bff0104, 0x09fdfb0d, 
    0xf1fc0405, 0x08fffa00, 0xf60ffcfd, 0xf90d0cf9, 
    0xf900fa0a, 0x0bffeeff, 0x020aff03, 0xf7fdfd04, 
    0xfbe501fb, 0xf707fd0b, 0x01fe0509, 0xfcfff800, 
    0x0314f6f8, 0xf8ff03fc, 0xeefafbfe, 0x07fd04f9, 
    0xeb01f4fb, 0x0809f602, 0x010712ff, 0xf900fd01, 
    0x0a05fe00, 0xfc040401, 0x06faf908, 0xff0600f6, 
    0x02060cfe, 0xf9fc06fa, 0x050400fb, 0x0205f1fe, 
    0xfd11f904, 0x07fd0500, 0xfc05f701, 0x01fd02fe, 
    0xfd06fd05, 0x01fff6f6, 0x0d030307, 0x0301ff08, 
    0x031007ff, 0xfb01fff5, 0x02fa0c13, 0x05040aff, 
    0x04030201, 0xff02f602, 0x06000506, 0xf603f9ff, 
    0x1304ff08, 0x0607fcff, 0xfbfff901, 0x0ceeff03, 
    0xfffcfffb, 0x0af5fef4, 0x04fdf904, 0xfc010cf7, 
    0x04f900fc, 0x050606fc, 0x0ae602ff, 0xeefdfbfe, 
    0x0405fffb, 0x0afcfefd, 0xfafe0603, 0xf80cfbfe, 
    0x00fd0003, 0x03fb08ff, 0x08060101, 0xf9fef716, 
    0xfdef08fa, 0x0406090e, 0xf8f00b24, 0x06faf2fc, 
    0x05f4f5eb, 0xfff7fc00, 0x0a0e0305, 0xf108f102, 
    0xf70202fa, 0xf9000500, 0xf6fb020b, 0xfef10c02, 
    0x0902fd10, 0x0af700fb, 0xfb0a08fc, 0x08eb07fb, 
    0x0bf4faf4, 0x05f1f8fb, 0x0a0d05fc, 0xf907f806, 
    0xf90810f6, 0xf8fafc00, 0x0bfe0303, 0x0af90afe, 
    0xfa0310f9, 0x020f0e00, 0x06f60006, 0x02fc0203, 
    0xfef90500, 0x08030001, 0x04fc0207, 0xf9fb0505, 
    0x010105f3, 0x06f6fc08, 0x02080502, 0xff0302fe, 
    0xfdfe0e08, 0xfefbff09, 0xfbfc0bfa, 0xf60608f2, 
    0xfd010305, 0xf5f706fd, 0x0500fefb, 0xf9fd0200, 
    0x08fe0802, 0x070304fa, 0xf706fbf9, 0xfff80506, 
    0x00fb0507, 0x07000100, 0x05fd02fe, 0x01030407, 
    0xf60ef6fa, 0xf609f602, 0xfbf2fa09, 0xfef6f5f7, 
    0xf8fe0100, 0x0408f904, 0xfcfd01f1, 0x0603010c, 
    0xfb0312fb, 0xed000af3, 0xea15fdf5, 0x121ef6f8, 
    0x02fc0600, 0xfae4f7f6, 0x09d20afd, 0xf602eeeb, 
    0xfff2e2ed, 0x03f51604, 0x020fe4fe, 0xe507effb, 
    0xf9e124dc, 0xf705fb09, 0x0812e611, 0xe4f80be7, 
    0xf6040a20, 0x10f4222b, 0xf8f909ed, 0x2afe00d3, 
    0xfe08fde0, 0x0000e6e2, 0xf9fbf8ec, 0xfa0305ec, 
    0xf6fc10c2, 0x1bf91a0c, 0xf0150e11, 0xf0f6da13, 
    0xecfed711, 0x021e28e7, 0xdcfddc1e, 0x0a08d3c3, 
    0xfc0ae715, 0x041701eb, 0xe409d909, 0x11fde016, 
    0xf9feecfb, 0xfaf2e9f7, 0x01e020ed, 0xfe0a1802, 
    0xfef20504, 0x0cffff04, 0xf9f7fcfe, 0xf7ff08ff, 
    0x03fd01fd, 0x0308f700, 0xff0b10fa, 0x0606f8fc, 
    0x04010eed, 0x00fff1fe, 0x03fb0605, 0x0ef7fa01, 
    0x0001fe02, 0x07fd00f6, 0xfaf80103, 0xfdfa0bf4, 
    0x03090a02, 0xf805060d, 0x010707f0, 0x0109fb00, 
    0xef0303f4, 0x0404f701, 0x05000fff, 0x03fdfaff, 
    0xfa010005, 0xfefc03fa, 0x020609fc, 0x01fefb04, 
    0xff07f2ff, 0xfe0cf50d, 0xfe01fe0b, 0x01fe0401, 
    0x03f505f2, 0x01f9fc02, 0x11fd04f9, 0xfd0a0bfe, 
    0x0305000a, 0xf5f60203, 0xe6f9fa02, 0xfa00f9cd, 
